node {
  name: "x"
  op: "Placeholder"
  attr {
    key: "dtype"
    value {
      type: DT_FLOAT
    }
  }
  attr {
    key: "shape"
    value {
      shape {
        dim {
          size: -1
        }
        dim {
          size: 50
        }
        dim {
          size: 50
        }
        dim {
          size: 3
        }
      }
    }
  }
}
node {
  name: "sequential_6/conv2d_6/Conv2D/ReadVariableOp/resource"
  op: "Const"
  attr {
    key: "dtype"
    value {
      type: DT_FLOAT
    }
  }
  attr {
    key: "value"
    value {
      tensor {
        dtype: DT_FLOAT
        tensor_shape {
          dim {
            size: 5
          }
          dim {
            size: 5
          }
          dim {
            size: 3
          }
          dim {
            size: 32
          }
        }
        tensor_content: "\277\353\223\274\037\311R=\335\235\034\274\000=:\275\270\260\207\275\262+\025\275~\002\230=Zw\277\275\336\024\224\273cP\025>\257\0358\274\352\326X\275}\256\304\273\274\010\021<a\275h\275@\221\240\275\372\256H\275\356\370n\275\000?\202=\020[W=\330\234k\275\037\202\026=\000\246\255\274\263\276\222\275\351\016\016\274%.\377<&\261X<}\346\231<\355\014\372\274\216\343\200=\n\205\325<>5\021\275\353\372]\274EZ#\275\373\222\230\275\371\237\r=,h\n\275(\216\001\275\272\032\251=\377-\276=\311;\332=\264m\237;LG\212=<l\204<\010|\257\273\340\232\266=\367&\340<*\205\001=\337\270\220\274\376\241\007\275\257\024\023\275\353\352\315=\200N\354\274\343]\342<\'\253\t\275\017I\206<\341e\370<h\211\014\275\357\222h=\200\030\211<a\250\205=\357\016\217=\363g\'<\236\034D\275\025UM;Q\313\246=\020\230n\275\222\340\246\274\244\363G=\315f\271=?\311\360\274\034\343\321\273U\021\234<\312t\013=\377;,\275\221x\321\274\350\216h\275\016\231\225=\260\217z\275\212\r\000<\262*\027<r<\226=#\022\222\274$\372\002=\024\031_=\257\017\377<\200\r\371<\004:=<\341\004\363\274\213\re\275!\204o\275s\344\243=\036\0167\274\205:\225\275\177\324\342\274[n\016=tR\204=\321t\276=\273\214D\275\226w\026<\343\344\204=\347\362\375\274\307\347\036\275\305\022B\274[\367\213\275\237\367W=\377,\'=\224\214\210=\212/D=1o\201\275[F\226\274\360b~=\276\'\202=\264\345T=\357_\032=\263\"\236=`\210\205\275\'\\\\\275A\027\225\2751]\002\275$\240\245<\275(9\275\226\013}\275\322KG\275\343%\207=\235\307\273\273oz\333\274\256\262\201\275n\275\214=O\033v=\372=\245<a\340M<\354X\242\275\341c\t\275\"Q@=\270d\362\274n_\006>\367\266\t\275;jS=\r\237\311\274X\245(=\250!\027\275\234\320\220=\330\322\226=\227D\007\274\340_7\275\340\253\211\275\226`m=P\356\213\2756Fv\275\351\307F=j\024^\274+ \221\275S\'\376\273G\247\224\275\177\341=\275\314M\246=\354\026M\275r0\305;a\217\211=\225\n\227<\004r\313\274\n\014H\275\251\325\305=\372s\211=-i#\275-\021\211\275\356\344\274;hT\230\275\022\223n\275\363\222^=\016P\223=\376\254%\272\237\247\234<\311\004\304\274\3637\207<!f\252\274\215\227\346<\236\365L\273\036{)=&h\206\275%\2136\275J7\006\275\025\023\205\275\002\343k=\312\305\344<\252\"\243=V=\311\274\026\034\242\275\364\365\212=1\317\344\274\004\227\255\274\014M1\272\334\032\253=Z\376\\;\263\350d=\230l\022=Vv\333;\300\301\323<;6o\275[Eb=\317\336\024>\004.7\275\324P\225=\036[U\274Y\304d<\245\352\324;\266\214o\274\342\014\343<\376yg\274v[\206=\215j$=\22421\274\340\271\245\271\263L\270<\365\353\245\275\255hT\275\340\312/\275\333\250Y:\321\274\234\275g? =\016P0\275,\006&=\211\264\227\275\353\345?\275y\365\276=N\320\240\275\370\021\227=?.H=u\351T\275\\Y\\\275M8\220=\325\204\330=\207\252\366<;D<=\302\004\034=\"\030I\275Z\325v;\266L\212=\'\307=\274o \226\275n\005C=*.\227=\272\362\335\274v8\221\275\200Y\264\275\207\367\004={~\363;\007k_=\007\276\247=A>V=\207\213\007=\321l[\275+|\303\274\304\000\347;\263!N<\300\314:<9H\244=\036\001\020\275\274\207\272<O\271\257;\376\340\223\275&\023\215=\n\003\326<\344\275\034\275l\214\355\274\006\261k\275\332\003e=\222;\207\275u\037\006>A\272\266\273\364\006\235\273\013A\246\275\272\367\225\274\233\312b\275\250t(=\263\350l=\\\241\204=l\340\255\274\213\231R=v\"\267=\270`Y\275\342~\035=\333\026\014=mW\245\274\022\246\205=\022\322\201<\364)\017=\2106\036<\002\'\341<r\345\373\274\261\210;<\273\022\322\274\035\367Q=\273\375U=*l\241\275X\025b=Y\201\313=\\tN=6\262\220\275+\315\243=A\235I\275!a\242<\222\2328<g]\302=\225j\227\274\250\356\203=b\275?=\212\323\304<\310\357\254=p\374\211=\242\"\007\274>\035P\2757\313\261\274\200O\262\273\356K\007\275\321Pa\2757\336\027<\3024M\275)A\206\275\355\351\210\275B\361\335:\034[\342<5\\/\275\357\376\224;s\267 \275Q/\r=\227A\260<\373\303\351=\363\030\214\275\315\013\232=\243{\233;T\377\202\275Cz\313\274\351\207>=~s\220\275\212B\233\275\332\327\375\274\023~\353\274\262E\301=(w4=\202\354\331\275\367\0205=\3033\207=S\342f\275\274]T\275s\333\023\275c\230\205\275\315\303\271<I\361\247\275\373\333\243\275x\035@;+\225\235\275\353\232z=Xss=\305\372\003=\251!\261\274\312\265]=\002p0\275\242\016\272=Sa\300\275\024\301\263\275\261\331V\2756R\032=\243\320==qQ\336=\035\352A\275\226F\r=\207\212\035\275G$H=8\316\260=\220R\366\274\324\r\222=^\265\232\274\256\366\355\274\026i\213\275Zf\343=0\262\211\274\252\275\233=LI\004=XV\211\274(T^\275\322\257R\274\3301\300;\013\373\217<8\237.=d\207j\275\311#\237\275=\215i=<\220\020\275N\215\232\275\240\334\250<@\032\245<\316\237~=\006R\265\274\022I\242\275\3143D=\233\256\346\274T\334\375\274\272+\275<\206\260K=\231\332M=\326\344\026\275\223\250\027\275\247\350\227\275\3473\024\275\'\277\217\275\014\256n\275\022\273+=j\331\360\273de\336\270\303\032E\275\213\2006\275\204\306\347\2746\337*\275\251c\237\275\'\305\177=\035$\022\274\364\327\363\274:\\(\275\202\023<<2\217\223=\356\034\360\2732\357\254=\277\357\333=_\036\270\274\3348\014\273\361]c\275U\372\334;G#4<~\272\252=\366S\266\274`\303\026\272_Q\242=N\347\337\274^\340\350<\200\002\216\274\t\014\214\275/h\203\275\313\255\232\2754\246\026<\177[\221=\003\351\032\275\247\036z\275\374B?=\301\322\002\275\363\274\204<\334A\253:\312\241\211\272\3746\035=\350\320\001\275\215\351P\274\301\226\035;[ht\275i\255|\275\352\307[<_S\231\274D\245\211\275OW9\274\005\326x\275,\257\210=q\371\243=\223\264\254<\2435\277\274\326}6=\300]\001\274[u\312\272\205\324\312:\036z\205\2751\337\213\273t6k\275Y\310=\274\241\367\242=\335\322O=\321\251\224\275e5u\275\353C\236\275|U\312\274\342\210\016\274\006\013\032=I\207\001\275\252\217\r\271i,\267<\354n\220\275\205\266\220\275H\240\222\275\276_b\275\n\224O=\021\"\211=\253T\027>\346\211\246\274\237=(=g&\247\275^6:=LIQ=\177 y\275\013b\343<q/\007<\312\312P<\343\304\265=\002 \272<\230\n\220\275(\200\206\275p\351z<l}\007=\322\016r\274U\223\027\275eA\256<\330\211\213=0O\205\274#(a\275C\207\232\275*\236u\275\335\212\342<\n\306\241=\203\371\341\274\305\241\226\275\324~\377<wFU=\255\304n\273\324\027]=^\240y\275\332\021\312;*\351l\274J}\003\275n\334\267=\177\3362\275\200r\203<\002\273*=\304Q\235\275\340=\034\275)\277\232=X\017\255\275\305\031\333\275\003G\214\275\254\333\n=8\230H\275\374\335`\274\254w7\274(\276\241\275\234\212\237<\363nd<e\200\312\272`l`=\340]\177=5\031t\275\331\024\214\275\2561/\270\260\245\203\275\276\273:=\307\357\272<l\25279\215(\343\274\3311t\275R\247V\275\016\257\210=;\240];`F\250=\2222z<\300\262\001=\234bD\275R\367\246<G\332\345\274\363\215\270\275\207\353\227<\305\260\314=%\036,=\261\213\212\275\031\261\300=\325\300-=\372\316\206\275\227\255\217;A\030&\274\017\034\227\275\005\243\216<\355T\352;E\006R=i\033\343;Vn)=I\231\201\275\330T\247=:\242o=\214\356s\275\375 \277\275\214\355\302<\262\007\000>\202\2002=\013\206+=n\211s\275\321K\024;1`\215\274x\201m\275\000\325I\275\254\312\241\274#\253>=\267\335\n\2746<\\\275\031\222\232=u%Z<$\276=\275\\\030\265\274%[\247\275\024\2402\275\233w,=\026\317\005=\206P\224=6\002\231\275\325mH=Hny=\350e\221=\203\325\'<\320\300\003\275\3127\322;_?\351<\"O\243\275\321\252\177<)\303\335=P\010\223=\303\341\245\275o)Z\275\330\221\001\275\210\271\221=\330\014z\275WF\320<\375\001\t=\231\377j\274pt\305=bz\321=\032\332\211\275L\376\204\275z\361\n=V?$=V\245\204;\212\205\332\274\317\260\244\275\007w\217\275\205%\030\275\024\360Y=\234T\213\275\343\"\031\275X\227\216\275\336\206\205\275;|-\274\324Q1\274\010\227\250\275\n4~=EfI\275\222\255\357\274]{\300<}\2442\275\010\263\247\275\365\352x=\020]\243<\255\371\002>\254\021e\272\305\235I=!\347\006\275\210\337_\275\004\334\266=\021\222)\275\026\252\230=\360n\306=\215\r\212\274\211C1=%2\202=\364B\245\275\033(\200\272\\{\236=\310\260C\275+~t=\013\236\226=av\213\275\242S\273=\2214!\275\026I\256\274\274\370\223\275x\000\227<\346\370\242\275\332KV=\2244\r=\006\'\214:\365\023\216;\027\240\310=\200\317\304;\303\220\233\275iP\252:Y\3445\275\023K\206=<d\220<$\355L\275z\317[=\250RJ\272\304\346N=\345%\202=|\2118\274\224E}\274=\036\032\272\273\323\261<\310pb<\257.\001=\330W\211;\345\r\222=\265\314K=7\314<=\372\216\004\275\232Zd\273\334\200\235\275L\266\253\275\031at<V^\213\275\221\222i<K )=\235e\003>\362P\203=\302\342T\275\342\361\224\275\260\363\364\274eN\251\274\226A\254=F\256\217\275u\235\001\275\256\377\211=0;\254=\002)d\2737\265\t=\243\336\211\275\375\366\205<\346\177a<\222&\206\274\207~\r=`\217\274\274I\206J=\203\265w=\n\311\211\275*d\217\275\317\301^\275\312\335\027=\026\342\263<ZV\037=;\376\237\274\251/\216\274\225\222\307<\321\253v<6Z\233=;\331t;\200\3068=:\271~\273\200\373m\275\377\322q=9\264\001>J\267\241<pT~\275\301X5<j\014\212\275\214;9=@\226\200=\324[w=\371-\033=\346O8\275?gX\275t\276\276=\221}r=\376>\244=\332\301=\275D\237f</\222\217\275&\206\232\275\030^\245\275\234X\207=\321uh=\0324\212\275D\271\032\275/\332\236<\237\342[\275/\215#\275\334\212\300\275\017\037==\001\365\206=\010\303\035\273\213,K\275\025\t\336\274\366s\205\275\273\004\344:x1\022\275\260y\017<\215\334\215<A\213\032\275\300<\322=\243\331\225\275\320\200\236\275L\342\265\273\306\222\254\273\235\235h=\244\177\020=\2635k\275\025\025\201;C;\230<i\372-=\244\337\005=\233\021\"\274\222\360\335\274z\032\330=\271\\u=R\334\213\275\330\305\202\274v\337\375<\300\365\254<\345\262\010=\353M\036>\352\262\251:\346\346\201=>\343O\2745\001\276\274\243\340A<\355\251\027\275jE\214=\216(\236\275\355\247\233\275\254\225)\273w4\300=d9\264<\371\252\314\275^qI=-W\237\273\267t\255\275e\240\254\274\325\\\016=j=\330\274\261Xw=\207\036\001\2752<\264;\252F\261\274\206\034\021\275\200\330\217\2748A\245=U\323\263=\234\275\020\275#\350\210=\341\320\201\275R\236\223=(\231\r=\234M\267\275\005\223p\275R\357\323\274\243k\264;2p>=\372\227\260=\001I\"\274T\302\246\275\266\260\212\275\223\000|=H\331>=\355\'\304;\333S\233=x\035:\275d\376\252\274\020\244\207=\346\212,=\360\227\242\274\362\360V\275\372\030\210=\311\354\245\275\021\362\204=3\365\177<\270\261y<\324|\025\275\206\366W\274\377\263\024\275\3234_\274\205\316\037\275\003\235\242\275\363\007\021=\306\211\210\274\356\036\220;]c\\=\236\226\210\273\307\274A=\014W\272\274\327\361!\275\236*\207\275z\315d=\312\243\031\274mm\245<\366\315\272\273\315#\005=\323X\177\275\335A0\274\366\302\232\2749k\270\271\030\300;\275\317\210\177=\310*#\275\225\216\231=\r\264\327<\007\004\236\275xJ?\275\037s\337<\343\273\\=y\275\213<\246\263\001\275\314,\243=\177\355v=\354\'~=0\201\211<mR^=a\272r=\275\243\3749\000\3620=\350Q\254<\027\334\010\275\347\240y\275\227\264\331\274\273$l\275\260\366\321\274\250D\\\275\316\020\035\275\270\364\347;4\355\206\274aw\240=\221\340\353<k\360\274\272\246N\326;\207_\206\275\303\0333=\312m\230=:`\354\274\002\233\000\274\252*\334\274\261\035\010=D?\302\274\334\314\224=Y\327n=S$\236=\2348\013\275O\013\330<\335w\260=\250\335\351\274s\t7\275t\314M=\2208\254\272_\370N\275\024$G=({&=\312\253N\273\002Y\023=\257 9=Q\\\331\274\270\267|\275YI\326\273#\271W=\320\265f=\323\364\373\273=\374\273=\364\330\202\275\212\233W=-\202%=h(Y=\273@\223=\270v\216;\314\234+\275z\026\221\274B\313\021=\006\377\362<\202e\230=\352\004\235\275\253d\242\274\262\324\246<_D\325\275+M\304\274\200\202\354<\220\032\361<\241\321\240\275\302_\033\275F|\272\275\216\226\014\275\035Gx=%\230Q<\274\233\220\275\356\037\345=n\303q=#fx=\364\355\243=y^\020\275\226\346\224=\005\377\036\275\263\010\360:\307I\206=H>\340\274\244\304}=|e,=\243\016\216\275\227\202l\275;j.=\360\005\250=\210+\334\274\003\246\261\272{\032\251\275\235C\024=\371\347A\275\264\001\275\273\245;\010>\006\245W=\\\351\364<\362\336\241=\030Z\223\275Y\323\225\274\034\356\207\275\213\023\226\272p,\214\275\301\226.\275\2405\375<\036\313v=\034>\201=\311\235S=\010\374\374;\266\312\014=z\033n\275}4\244\275\200\352\254<Y?\227<\316\217H\275\321a\002\275_\352\222\275\372\242\216\274\322`f<\3641\217=\027\360=\275\305BN=>\234\240\274\270\361\220=\356\320F\275zoL=$\311\020<2\344)<\351\243\t\275\034\340\202\275\351\364\322\274\"f\244=\253\263\262=\256**\275\242D>\275\245\377\245=vx\306\274;:\223\275\233\321\r\275g\222\267=\222\373\235=!L\257\273\025\035\216<\335\026\200=\027\315\002\275\205\3165\2748\363F<F\250y=\003\250\250=\237\340>\275\312\230\036<\273\251f=\266\304$=q\325X\275\321\261\007\275\364\230\212\274\321:|\274\217p\021\275q\225\215<\264\020!> J\204=\026\375\247=\0212\221<\300u\273\275\365\362\231\275\205\370\346\2747]\235=\357!\202\275t!\032=\247M\307=n\227,=\353\004\225\275\261\004\372;\275\365B=\001\254\'=c\261\304<\346\250)=\244\206V;\216V0\275\032\247\037=\201I\347\274`\267\000=3\023\247\274p\232\247=\265V\355<Jz\321<\255\375\177\275b\372\252\275\000J|::\240\233=7\377\007>\240\004F\275\2649/;t\335=\274;\324\034<Yvb\274\216\277\363<\346\232\214\275\375\361u=\026\302\\\274\320H\212=Q\355S<y\202\310\275G\236\360<\250\374M=O\225\"=g\315L<\341Z\371\274\276\260\037=!\240\000\274\2730\320<at\"=\237\013\215\275S\306\314=\247:o\274Rk\316\274%\337l=\253\262\r=&=v\275\316\022v\275)\265;=\224\361R\273G\022q<a<\252\275yb)\275y\2703=\320rx=\036o\376=4\003\222=\217\005\355\271b\023\243==/\221\275u\260\310=\245Bm=/o>=\230\0031\275\370r\247=\307\177\305\273\363\210\345\274\"\034`;\306m\235=\323\302v\275s^\357\274\233\251\201\274b\326{=j$\200=\000\036!\275#Y\311=\027yW\275V\255n\275\224\024>\274\241\355\347;{\204\357<\006\315\260\275\235\252\260=\234\365>=\014\355\252=\317Ck\275\026\ru\275\333q\021<?V\254\275nB\t\275\371\204\265;uX\317\274\270\363V=\316\364\317=| \227=\274\363\376<J\336@\275\305\032\350\274\251\017R\2752\322\200\275\273\231\251;\235\024A=\246\211y=i\360i\275\037\346\251<\007\017M\275&\241\005=\325\200k=.qE<}\266\224=\277\362]\275<\007%\275\2017\236\275\275}{=\035\315\006\274\350\364n=\017/<;\345\373u\275<\223|\275RZ\r\275\314ce\275\233\333\217\275;g\226\274d\317\275\274\226\333\244;{\017\340=o\224\270\275\240PD\275\303\322\324\274H\355\004\275?\251\312<\266\344\327<\267a\211\275\030\364\330\274\rz\365\274\371\373\225=\250m\377\274a}N=A\223\013\275=\347\206\274\n\252L=\373\240/=\037\236e<l\036\207;\003J5=\216\007`=0\355N=\313\356\204\275\014\204\230=\275\225q\274\337\326\001=p\"\016>\035\030\265\274v\356\'9 [\2607\'8i\274[z#=\322\227I\275?Y\303=nQ\340;>\256\020=\003\206f\275\234\3300\275\263\310\235\275\n\004\264\273\234\352\024=\376\020O\275St%=\242\222\237\274\031L\250=\242\355\216=\221\261\204=0cf:\302+\003\274\346\363/\275\250y\005=\215\206:\273Aq\300\275\1771\203=lF|=\227\203\230<\035\332M;\355\223K\275\270\254\265<\241\271\t=\242\356\342\274\rF\001<V\261\036<}\350\203==^\264=|\021\364<\t\034g=\274&p=\247 \243=\006@\007\275\235\240\342\274\327\205\030<\350j\377\274W\257\250=\002?\274<\032\263\020\275\217\340\200\275\270\215\321:\250t\253=\355\177\207<\263\246\227\275\005\306f=\004q\341\274a\376g\275_\334\231=]\020\037>\251Kp=\r8R=H\020\203\275]\332\016=\004\272\031;-e\260;-\261I=x\034\354<\265K\362;hT\272=\013Y\365<\335\220U\275\000\177\326\275\324]!=\2327|\274\347\316\257\275Y\"\217\274\021\002Q\274\332G$=s\000o\275;\207\354<4^\367\273\316\207\026\275\352\027_\275\330{0=ys\003=\317+\023=S\312\243=\351h\266=\231Q\032\275\032\243\264=;\267\330\275\036\301\333;\3310\253:C\357\215=!\221]\275\354I\251=35\302:\036\222\247<: \234<Fe\217=\244]\236=\376\243\306\274\007\353\302=\\\027\253\271p\230w\275\372\304d=?\341\363=c]X=gRZ<\\\237\220=\222\n\217\275\007\020\354<\370\261\236\275Pr\2659\214\355\350\273~u<=.\352\215\275\014\307\013=\320\323\010\275f\201\352\274\236\366\235\275\242y\305\275B!@<\214\010\020>?\352\250=\000\255\247\275\266\372\000\275\352 \375<-\206\276;\035\177\233<\205\222\243=\234\006U;I\240P==\004\020=Ym\253=\347\334\003\275$\355\'\275\324\331P\273\273\030\227=\320\266\337\274\241\034\355\273\365*r<\206\357\315<\213\253\265<\347\351-=Sm\030=\200\005@\275@(\\=[\237\021\274\332P\037=\340z+=\251\225\253\272vF\360\274\367\335\004=Wl\301=L\260\206;\312\331\203\275b\223\376<qH\022=t\262$=+\345\244=\220\252\203\275\270\r\030\275\031,\273;C\212\251=\314-\327=\004\026r\274>?\305\274l:\014\275S\3666<\002\234\230\275\331\374\227\275\020)_\275\3618S<\312\311\244<\255\240\300<\\\241\237\275\274)\265=_z\275\274(\221\236<\217i\317\274\240k\257<\311p\033\275]\251r=v\330L=\332\262\300\274\251\272\202\275\317-)\274\2548\210\275\300\216$\274*3\217\275\"\251\367=-\320\016\275\365\304\221=@\373n=vs\255<h\302t\274\237\302\032\275\362y\313=\021\257\251=\037rR=\241\331\001=\266-\205<\205\024\364\273+bc\275\261\322w;\230^.\275\017\374\033\2753\240x\273\317.\266;L\300\033\274.H\326\274\273\361\215\2752\220\200=\367\346J\275\005\237\340<`\266\346\274Q<*\275\216\277\262<\257\274\260<M\\\\=!S\025\275\207W3=aX\235\275f1h\274\210\265c\275\2531\032=w\236\213=Y\020\252=\005D\333=T\305g\275\372\246e<\305?\307<\2348\243<\365\247V< |/\275\216j\250\274y\2329=2\225*\275\274\257~\273\324\222\243\275\253\035t\274\266\302r\275vz\002\275n\307\246\275\265\205\205=\217\372\240\275\\H\225\275\0319\213\275\342\262\353=\274\211\254=\211e\223\275\205\336\244\274]\245\007\275\211(\203\273z\270\r=\274\330\037=\364I\223=81\265\272\304\0102=\220W\262\274m\035\337\274\245\035M\275d\305\231\275u\231\233<\263d\215=\334\031j\275\"\3061\275r\214\236\274\355\255\350\274KH\312;\227\350\200\275;\312W\275t\303\315=\207\364\022=F\272\232\275\240qh<\357v:;\0148\212<\246\363\210;\340\213\217=\221\273d\274\331}\236\275<\306y\275^\262\253\275\2009\031=\355\320#=\301<\250\274z\r7=n\t\217\275\263\301G\275tOU;\376\334\264<G\377>=\273\301\313=^\304\373<c\355\201\275`~\351\274\214\262\265=\277\315\307\274QO\250\275:7{\274\272\243\262\275H\324\226\275$g\':\205\347\000\275\344\271O\275\345O\362<\'\364\034\275L\213\250=:\227\247\275\003n\211\275\234\341\204\275D\001\021\275\273\222\242=\016i\304=\373e\001=M\003\247\275\031\301\200\275\337\232\274\275\255\221\003\274\225\350\317\274\007\275k=b\371\257\274X7\256=\"\236\341\273\225\035\'<\032A\241=\311\376\313<=\374\226=@~\246\275%\347%<\347\301X=\006\341o= 5\326=*T\233=\001\362 \275\224\303/\274X&\036=k\214\214<\0231!\275M\351\276;E\245,\273\255\373L=:\247\t\275=ps=\230\375\265<\020\330u\275\235dX<\035\331\220\275\004|\213=Or\274=^\244\201=|\'_\275[\262s=X\327c\275\324v\006=\223\375\312=\333\211\030<\364\342\314\275\357\215c\275\207\342<\275\203U\247<\004\313\n\275\204\352{\275\216\035<\275\014\331\263\274)\275\235\275\000\266\262\273\035*\240=\000\033\202\275\311\242\246\275\'\276\233\2756)%\275\265E\377\273\"/\225\275b\217u=\375\320\240=\353W\327\275\266\354G\275\303w\263\275\231\224\300\273U?\216=\350`\221=\330\332 \275d\243F\275\311\274x;\234\334\242=\270\312\357<\234\025\204\275\323\n\234=\300\353w=R\025J=\372\212\234=\021\375F=\030\004\374\271\277\262|\274Ns\344\273\r3\002\275\002p\344\274\266\316\305<M\254\244\273DF\242=f\235\n<\206\272\306<\250}\215\274#\327\t\275\034\036\013=\\a\242\275\275\336G\275v\031\305<\366B\016>\337\337+\272\'\307@\274\032\205~\275\217-\236\275N\203\316<vDI\275\004\317}=;\033\227<]b\'=hW\264=\324\353\337;\335\027(<5\'\021=\260\2272\275\234\363[;\353\202\000=Irw=\320o\036\274\022\261_=\036\307\031\275\372<\277\274\374^\277\275\225~\237=W\nY\275T\200\365\274\244\200\262<\014}\221\275\271\230\224\2758\334l\275d\037!=t5\014=\006\316\202=}{\230\275:>P<\357\273{\275\243W\216=\257\240`=\367b\2219b<<\275\212\352=\275\237D~=R\332\326\274\224K\037=5\320\032\274H\260\247=E\370<=\331L$=\245\270\005\274}\032D<<\254\202<Y(~=\367\016\214=7\305\230=\253\353~</\322V;\035\023\203=&y@\275\316H\333<\025z\364\274O\336C=yQ\237=\222\230M\274j\201\203\273\243Z\344\275p0_\275i\311\037\275:\333\342;\262|\361<\337Oc=\030X\222\275sQ\233\275\3311{\275=\205\267<\213*\272\275\255\205\270<n\346\363\272@Ns\275\374\243\324\273\377\322\216=$\251\206=\213\327\236\275B/\254<\275\000\"\275;\202Y\274t\250]<\370,\330\274\np\030=s\361\326=\030\204$=.\237\316\274\232\350\014=\226i\265\274r\025[\274\0353\321;(\374\214=G3\246=3qb\275\277\322\2339\356e\321<\033D\347\275\302\330\224\274J\356\237=\r\352\036\275\264\223\344<\210\374\'\273\272,\351\274\233\360\247\274\270\312(=\352_]\275\312\310;\272\274\023\001\275DX\201=\233PZ=\025\332\260=\304\370\321=\357\255\215\275\0237L\275\225\264,\275\265\005\214\274\\\320H\275oa%=5\270\311\274N\035\004=\313\372\202=d\322\310\274\227\244\001=\272\373\001>\240vC\275\341=\247<\241&\333\274\003N\371;\257\201\324=\250U\230=h\2223=\224O\215=\356\373y=@G\253=K\311t\275\204S)\275G\223\356<\374\021h\275V\006\310<\340L\255\274\245\351l<\'\213\235\274\354\277\006\275L\211\014=\000`\234=_\010^\275\006P\363;\361&\355\274c&7\274p\013$\2724\014\323\274\365\210\362<\005\347\220=\\Wc\275`5\025<\225=\370;\3643\224\275\204\205\243\275\007\0047\275\3377\230=\320F\304=\025G\t\275\342S\232=&\235J\273O\306x\274\037q\021:\220\251\025\275\036l\303=\207\007\247=\'?\256=\327\222w\2748\307\340=\313Z\344<\326\355V=\237\231I\274\3643\201\272\000\000\221\274\241V\326\273x\371\316;\344\271>=M\226,\275C\373O\275\3236,\274KIN=\035p\257=\005ve=\322g\250\275\010\270\247=\356@\374=\346\223\202=\3472\247\275s\316W=\246^\031\275\356\324\224<m\315\213=\370\273\347=B\323\234\274\277\265v=\303/&=\371H2\275\315\251\371<~\025p\274:\204j\275\037I\215\275_\333\253<3\002\002\275n\361\233\273\021$\n<\264\260\211=+\313\223\271\304\306\247\275\321A\240<\016\352}\274\2633\223=\266g\211=4\371^=\264\321H\275\367\344\247=\377\024\333=\360\343\255=F[\205<\342\036\210\275\266t1<\006\266\250=\034\214\314=\234(\207\275jQ\361<T\343_=\373\302\250\273\3705F<\022C\245=0\221\304\274\025\016z=\331\200\252=\230\013>\2758\256\022\275\217~\207\274\223\025\204\274\341}\227=\330bW=f\022\240=\013\355d;\275\322\274=u\205\037\275\251\305\256=\333\025o\2752\013\034=\353\215;<!t\252=\203\371\235=\032\272N\275U\327\263\275\277I\325\274Q\240\324<\334\n\232\275\211\230\001:C/\031\273\315\334L=\275\037\017\275\325ig;\330\213{\274\356\272\207=_\232\332<\210\215~\274r\224\230=\211\030\r=f\303k\274i\313\217=\232\0132=K\366o=s\025?\275\236/\234<+/F\275\023L\017=\021\213\r==-/;Gm\252=\360(\216\274\010D\256=\013*\025<?\374\354<\273\202w\275*\'\213<\227,\231\274*\355\260=)\333\203\275\310H\t<\230\206\203=\352\216\2669\372\364\250\275\025HV=\372g\232\274\3761`=\336\315\340\274\360\265\347=\252\013\002;\216hJ<E}\247\275S\334\244\275\033o\033\275\325\001\315<\371\342\027\274\237YY\274@\3466=\264i\210=\350]\001\274A\347\266\2741\342\031\275)%\271=\204=\022\275\231V]\275<\312\251\275&\331X\274\303=\277;\\t\307=\366\362\020>\314\257>\274w\221[=z17\275\210H\267<f\031h\274\221\371\206=\366\310V=\270\003\232=+\226E=W~\267=q\263\003==\0255=\025\024L<\201w_<\237^\021=\220dH=L\230\r\274\204]*\275Oo\020=H\036\317\274\326\256X;\342\321\352<\230\007\306=\351\272\271<,\344\311\274\373rU<\250\305\002=\222\367\324\274]\306\354\274\346\374\240<\033\220\025=\031\240\260\274p\214\244\275\021\t\212=vX\227=8(\351\274\024\275s=\272\365\022\2750\232\217<\267\306\267<e\324\355<7N\346<z\002,\275w\315\343:V\204O\274>\263g=p\326Q\275\037\304\311=\001\246\221\275\220S\212\275\352\231\242=9\213\245\275k\036\247\274r-\005\275f\370K=\311\336\277\272\302\233\\;\221\\x\275\005m\207\275\356\356j=g\272\267\2735vZ<\036\367\021=\276c\261<[c\314=\r\273l\274&-\217\275\250?\221=\t_\354\2751P\205=\354\330\030=i\310\002>e\254M\275\210r\260<e\265\262=\270V\214=\220\225!\275I:g\275\\*\211\275S\035\242\275OB\217\275&\2766=1\001\247=\345:\327\274H\'\337\274\306\225@\275\364\273\336<H\256y=\221\300\366<%\373\201\275\335\274\243=\231)\367<@\262\217=\324\326:\275MK\370=\036\203\034<\221\017\234=!a\320<\023$S\275\356\030\004;\r\006\214=x\312=<pv\227\275\034\230\234=E\256\000<\323@\203\274\0065E=\250;\215\275\350r\322<s\337\010\275\013z\353<\225\177\246\275\207\031\205\275\343\304\226;\017\025\307<\373\256\233<B\235:\275\t\312\217=\3408\225=\' \177=\367J]=\034\257+\2753\306\242;&\362#\27549 <Yh\325<Xz\221=\006\237\205\274\236\231\007\275)\377\003\275=\t\233\274\376-\256<\352Z\306=\021\271\251\274\342\306j\275w\265K\274\002\374\251\273\257\247\200:41>\275\253{\211\274!\216\210<2\177R\274\257*\255<\026N^=\322^,=\3331\313<jp\252<\320\314(\275\034\254\022=&\001{\274\023\373\204=*No=F?\225=\246\224\362\274Y\226\206\275\336w\203\275Vn\225\274\035\351\2258\300sc\273\020\344U\275\357Y\032>H4/\275\271:\223=p\0139=\203\002\361\275\225\306\026=\2505\r\275\221\207\313=o\3767\273\252n\201=\275I\215\274s\230\206\275\"\323\207=\232\027\267\275\001\356F=\214x\360\274\353\0371<@\021v=\210\021\200\275\032\330\000\275\3412t\275\245G7=\305\233v\275l\033\004\274\331\377\n<\271\214c=\030\305\256\275,^M\275\271F0=\253\312-;\226\241\353=\344m\205=bj\337<|\000d\274\271\022*\274\222\332\206=\242\315\240=\211\331\223=a\223\206\275n\343`=\027\337\245\274o\307\245=\274\225\r\275\243\342\225\275\261\312\272<\352yj\274\330\334\2669T@\377\274\251\350]\275\030\337l=\'S\006\274\342\n\222=\332\215==Q\232\346<\355\264X;={\366\274E\360*\275\260\314\200=t\307P\275\327kz\275\016\202\331\274\211\004e=\325~{=\352\325\037;\324\340\310\275\244O\005<t\353\331;dy\374<5l\010>\337\330\320<~\'\201=\342\006T=>.\260\274\376jp<\347\220\324\275\246Q\216<G\225\304<\267o\222\274\035\243G\274_\370\206=\3358.={\002o\273\\\370\027\275\007\2166=\245\206\331\274=\010\207\2758\316G=e\342\375\273\007\253\301<\207\3601=\335q\024=\232\373\335;\327\367!=\334\004\203=e}.\275z\016\220\275f%\311=-\232\307\273I\226@\275Oc\000\275[\203\3718\033\032\204\275\216\374\331\273\217\027\360=)N\206<\007\375\334=z\362\023<dLY<\355\\P\275\035*\t\274Z\275\323\274\356d\347\274\213|\232=\010\307f\275\206\222\243=\001\037\254=\242\212\242=G\007A=\275\211\367\273t\225\335;\032\t\t=6\246\245=\246\262\"\274\235h\212=\325/2=x\257@=\023\234i\272\336\030\304=\277\355\021=\3152\365<\322\262\371\274Yk\376<,\370\032<\022\025$\275\361T\365\273I\240\244= 8\010=\300#\316=\002\255#\275\366\247\304\275\226\354\310;\3375\253=\226\303B\274\236\356\016\275\346\013\007=\3016\204<\264\036\337<G(\204\275\222O\217;\032\332a=\'\347\323;\231\202\202\275ia|\275\260\306\030\274\314aZ=$\257\200=z!\213:\007\202n<\265\314\371\2740\016\241<\256h\204<1cL=AWN=\020m\304\274\332\372\350=\3165\235=O\360\304\273tS\204=\263\271J\275\313\317X=\024\374\305\275\240C\312=.\370\273=8mr\275\212\022\200\275\003\335\220=d\035c\275\006U\225\275\315\223\323<b\250\225\274q5\032<\020\225\216;\2004t=\235\204\341<\311\373\323<\236\271\'\275;\3336=\272b\243=]F\241:\352\243\202\273\230 \374\274\237\243\200\275\304\330\017>\216\227\307=@\204{\275\310\361\364<\323j\215\275n^~=K\335\260\273;\365X=1\217\262<\265\363h=:\010\"=n\376\237=v\345\204\274\377\350\306;E\037\202=\271\222\202\275\344Q\004\275\251\033[\274\323\230I=\326\275\324\271\206\207(\274N>I=\333\232\244\275\033-\244\275b\017^\273\345\247\013\275K\335a\275\222\344\261<Z\223\227\275\005\014C\275\205\307G=\030\250\002>Y\334\221\275c\014\003\274\236*x\275\2622&\275\371v\222=\300\200U\273\204f^\275\230\300H\275\217S\240\275l\354\330<\021\217d\275\257\345U=1\3452\275\377\024\205= \212U\275\273/\221\275\331?\240\275\322\354Y\275\221M\220\275\202C\260<\376Q^\275\370\363\246=\322g\247=\240\003-\274\237\217\030=1\270\333\274T\321\306<\301S\031\274D\355\202<\302\353\220\275J\247\274=\373\300\276\271J\357\032=\245]\264\274\035\365\213\275\362C\306\274\242I\364=T\235\207=\204_\242\275cz\277\274\330\332^\275\226\3425=&lK\275\310\212\205=\251\337\207=J\0066= \2566=1\214\325<\245Y\377\273\246\330l=<\261D\275\377.\025\275\356\320)\275%\222)\275 \274\034<"
      }
    }
  }
}
node {
  name: "sequential_6/conv2d_6/BiasAdd/ReadVariableOp/resource"
  op: "Const"
  attr {
    key: "dtype"
    value {
      type: DT_FLOAT
    }
  }
  attr {
    key: "value"
    value {
      tensor {
        dtype: DT_FLOAT
        tensor_shape {
          dim {
            size: 32
          }
        }
        tensor_content: "\265\265/<\244\"\034\274\243\306\205\271\200\217\325:L\017\013\273go,:\n\275U:D\340\341\273\263\025\210<\027CI=\000\212\030=0\355\214\271{U\234:\320\037\215\2756\306c\274\250\261\2639x\037\n\274aV\345:\211\201\001\275\253\030.=\270\207\314\274\352]\252\274Z\t\264<\000\ru\273Z\362\213\274k,\3049hY\273\273 \003|;Vqf=5\250\342</U\276:\277\3262="
      }
    }
  }
}
node {
  name: "sequential_6/flatten_6/Const"
  op: "Const"
  attr {
    key: "dtype"
    value {
      type: DT_INT32
    }
  }
  attr {
    key: "value"
    value {
      tensor {
        dtype: DT_INT32
        tensor_shape {
          dim {
            size: 2
          }
        }
        tensor_content: "\377\377\377\377 \n\000\000"
      }
    }
  }
}
node {
  name: "sequential_6/dense_11/MatMul/ReadVariableOp/resource"
  op: "Const"
  attr {
    key: "dtype"
    value {
      type: DT_FLOAT
    }
  }
  attr {
    key: "value"
    value {
      tensor {
        dtype: DT_FLOAT
        tensor_shape {
          dim {
            size: 2592
          }
          dim {
            size: 128
          }
        }
        tensor_content: "\200\231\256\274\344g\344\274\314b\n=/&3=\277\2314=\005\317<\275\032\371\264;\022\177&=\261\te<\365P\331<\210\245\303<3\177<\275b\272\371\274Kf\304\274:\033\005=8\367;=\333\025<;\365z4=\207B\336\273\227\373\315:=lQ\2747\355k:\312\362\234;)|\326\274\255\316\263<(\320\024\275\360\022\026\275\372\276\366<\\\004\360\274Ai@\275\244\246C<\252\251D\274F\321(<z 9\275\306\270\305;#\233==\3308\254:#(.=\354\315T<\275\202*=\035p\021\275\240{:\275\346~\223\274\200\200\364;\346.\007\275E\231\245\274\215\227\301<j\243\253<\232d^<\023\324\312\274\213l/=\375Tl<\336\005:=H|\364<1g\023\274\313<\022\274\322o\010\275UfR;\n\240\024=\005\302\334;^\335{\274\226O};\016\206\006;\014G8=\265!\272\273\3535I;\256<5\2745L\004\274J\350\326\274\374\301R;\255(\004<\035\017&=\271\210\232<+\244(\275\361\001\"\274kf\244\2749\250&\275fwz<\352\372\373\274\232O]\274m`&\274E\217\021\275\350\376\035\275\346H\314<\006Z\224;\360\330:\274\366\027\025\274\253\024\026=5\213\365<\333+_\274\344\371r\273\017\214B<:\352\010\275\375%\312;\220\0346\275\305\024\203\2744\266\232<\226\000\353<\206\001G<\314+2=f\2773\275#\2676=d\207\361;\264y!\275\326*\004<I\224\205\274\362\026\223\274\002{=\275\032\246\362<4U.\275\245\030@\274\347\243\316<\002\331\336\274\344w3\275\310&\223\274\021|V\274\215&\"\274=\006\242<\363~U\274\003\237(=\223\317\267\274\032\223\335<\215\216;\2755\203$\275\235\277\311<\240\275\266\274F~\211\273fC+=\256,\"=\347\025%\275\300n\350\274\324,\363:\337(\034\274{Fa\274\350BG\274\252H\035=\0228\307\273\353\021\317\273\013\311@< \266\210<\252$\333\274\310\213M<\320CD\274?H\241\273\346\366\270<\030\0362\275\254\014\004\275\255@\325\274p[\232\274~*\214\274\225\265\356\273H\215\345;\227Tr;\035H\331<\341\343\025=\205\237\200<\\\344!\275W\375+\275\252.8=\375B\026\2747\321)\275\251\344\027<\363\312,=0\346)=6I\325<\356\326\372<k\007=\275\\\001\3679\323\374\351<\307\332\272<dO\010=\205\220\267\274k\354\"=\3402n\274nE2=\261\005\366\273\372b4\275\226\222\302<\000\244:\275\217S\031=\212\354\377<\024^\256\273\213\346\036=?\004#\275\305\245\307\274\263\302\354\274c\275F<\207di<\021le<5\257|:d\332K<\004Yl\274\013l/\275\221\3772\275\350\371\022\275\352\t\206:f\203\242\274\365\003\226\273\344\332\024=|\262w<\257\300\014\275\021\217:\274\331]0=\322\302\227\27385\350\273\314\306\337<\275\306\027\275\233\307\355\274j\243:\275\217\326\003\275\016t=;\324\332\r\275\035W\230\274\262\321\237<\'\010\2479\313~e\274\206yk;\202\222\333<\356\006\344:\234!J\273\252\"a<\261E\311\274\275F\262\274\234\3335\275\240q0=Y\037&=\322\366\362\273:^\032=\372G\340<\324\323,\2746\245$<\3327\354\274\301\330\n\275o\241>\275\311F\244;;\000\227<w\206\340<k\r\021\272e\251\271\274\242e\027<\025\216\203\274\004\023/\274\352/^<-X\316<5\032\377<A+\223<\3053s;\r\312\326\274\261\235\027\275\210\256\325<B\262z\274\225\3549\275\027\300*=RlX\272\272\377\206\274\344\376\341\273^\036\300<|\246\343\274\360\027{;\300\334y\274T\027\336<\205\305\360\273\326\366p\273\037M\224\274<\212\274<\027\326)=\256\245\360\274\221c\306\274\323\2518=4\324==\'\354;\275\345\221\321\274\332\302\371\274\034\254\271<\002\322\002\275\210h\337;\0077\270<\2704\223<\205e\033=P\226&\275E]\\\273\211&\240<Y5\n=\205\342\271<\304\003\014<\263(\316\274\2643W<} v\274\202\303\361\2749\303\016=NWy\274\004\005t\274\1772G;\322~?\2741\033\016<h\335/=\306M\037\275\210\2166\275\241\311\'=\244\373\013=\336X\231;\256\001/\274x\357\351;m>\026=\237\265\317;\'g<\275\007\3101=W\323\003;\225\217\230<\326^\005\275\374 \223<r\266,\2755n\033\275T5\036\274\351\212\245;\236\353\004=7\201\316<\336\356\231<\377\331\364\272\376\342 =oF?\275>z\010=RH\026=\342\237\251<\226\267\t\275\326v\t=\313{\354<\272E>=_~Z\274\255j(\275z\247Y\274(\016\022==\314\203\274\374\356\242\274\314\341\013=\275\226$=\352\272<=\351\355\244<\241\315\217\274Bj:<a\nK\274xD/\275*\253-=:\244i\274\277\230\022\274\304q+\273\357\336\262\272\343\372\246<e\335\r=[\270\211<\315\273\037;\304\037\247\274\350\316\212\273\324\322\371<\320\004\0378\240\355\347\274\245)U\274?\377%\274\244\227)=mA)\275/\263>\275\026A\000=\203J\313;\340r4<,\221\t\274\216\355:\275b>/<O.\026\275g\222\343\274\354@\253<\322\2449=\363g\374;\375e\344\274\353\331\356\274\307\024\202<\007\362#<\26675< \374==\200\304\006\275\241\302\004<\227R-=a|\006\275\377\262\006\275d\024\010=\330\254\035\275\0007,\275@\240\220\273\352]\351;\224\0323\275\276\nW\274\225!1=v\323<\274\007\305\332<J\302;\275\205E\3559\3515\035\275\373@\355\273H\303\342\274\335\313\267<E\311\\<\272\307\226\274\t1\022<\235\305\276<B\t\256\274\342\344?=4\203\276<\310J1;4#^\273=\2100=Xj\213<\307\332\025=\177\254\355<\300\2270=\271\322\035\275\316\233\021\275\272,\367;\261k\260\274\232\3649<\020Z(=\352\001\232<[\304\016\275\350\204\305<:z\035=\352x\251<T\261,\275fD/\275\tN+=\274\274\242<\366\234\321<a\205\014\273\267;\242\272_\262\367\274\312\233\270<\244\2469<\002v\310\274Ve\271:\025\313\207;\243\023.=\274j\n\275j\001==\360tG<\214m&\275+\177\303\274\225\2648\275:\344\262\274\317*\010=\247\3675=\263\034Z\274\330`D\273wA(\275r\273\202:#\211\314<\023`\202<\256\324\010\275\262?\350;I\2308\275y\375\017\274\362V\213;\300k\370\273\223`\234\274\013\211\275\274\023\341*\275\246\222_<\225\266\267\274\013Z\237\274\347\033:<\230\262\006<QL^\274>\026\t\275L\2314\275\257\031\006=1>M\274\317\204\352<\326\320\013=K\3742\275\311\030\257<\276\n\205:\225\362.=\034O\022;\"\245\030\274\235\351\323:\013\347,\275\265\321\001\275\255\365\302<\340\342\232\274\275\360\302\273\306{\214\274\253\367L;\002\036?=s\370\001=T\305!<\236\342\016\275\004\236\353;\362\365\233<\353\013\277\272\222\3622\275\347\254\031=\206\032\327\274_\355\010<K\006\240<\215\270==\r\3258\275\367\323\252\274\255\\\351\274\316r\020\274z\350\3679\376\364B\275\332_:\275\216I\001\275\302y\251<M\'\365<\365G\331\274\272\tt\274\3162\204<\036S\001\275\276\243\003=}\231,\275\260X\'=L\242\306<E\324;\275{\307\222<\016\227\330<_\233\342\273\253\335\367<\311\333\352\274W\337\336\274v1\342\274\002\021\333<\2326\037\2748\271\000\275\252A!=z\'*=]\276\"=\303\207S;\2757$<\001\244\023<\231\n\352<!\3445\275\314S1\274\206T\304<\337\371\242\274\227j\202<\240\2316=Ga\010\275\014P-=\377Ov<\342\316\314\274c\002;=\276\200\337<\220>\233\274\024\310\261<\310P\225\274\341\320\254\274\224Z\215\274sB\032<\203\273\265<\205\305\321\274\363\033/<\014~\207<\335\007\350\274L_\376\274\214k\265\273\005\\:\274\352\202\203<\027\207\214;\211|>\275\264\220\245\274\331\277\263;wbH:r\351\016<T.2\275\304\231\022\275x\307i\274\267\205\256<\236<\032\275\252\226\357<\014d\244;J\tf\274\237\357)<\304\240\357<\017\037,\272\247\022\331\274z\332\226\274+\3062\275Y\261\274;\303\345\031\275H\030O\274V\001\317<\007\235\266<M\311\362\274*Sv\274\352lO\274`\376$\275\371\326\356\273\300V\344<\"\340\227<\342\204;<\334S\242\274\234\020\237\274:\337\372\274\005\305\027<e\007\207\274D\336\235\274=< =\367\0074\275\000\2245\275)\223\021=\266J\324\274\313N?\275\354\006\233<\024!=\275YJ\030\275\212\356\357\274\336B\340<\2364\316<u\036\352\274\222P\320\273\263\370\254<7\306\205<WT=\273S*\003=\350L=\275N%-=r}\226\273\333V\373;\352\n\344;\021\246\036=U\240*=m\306\354<\222\242\255\274\002\333\022=\235\215\'=a\212\001\275u-\000\275\361\317\005=\360\351\027\274\330G;=\211?8<\007\2554=\336\203\360\274\336\273\347<\272\337\032=nB\305<\363~\035<\341\234\266;\233\001\017=\"C\271\273O\013\331\273X/\036\275\005\270\213\274\371\350\035<\356$\013\275\t\210\246\2748\2052\275\0178o;&\310\037\274\024B\230<\246N-\273M?&\275\023\372\025\2754\352s\274\372\030\272<\373\201\305<\331\001,\275\224\334\n\2750H\361<\377y)\275\365\316\354\274S\2264\271aP$\274\361^\323<x\303/\275C\340\032=\371\254N\273\213?\004=\362\215)\275\017\374(=t\261\023=^nm<\3739\254\274\252\333(\275\340\020\230:\244\305H<\242:\022=\306jk\274CLt\2740\244\371<\356\2568<\366\031\017\274\017\377\017\275\214\024\001=\236\254U<`YM\274wG_\273\310\347\244\274\300\246\035\274v\364}\273?\353\224<\314\325$\275\025\201a<HZ;\275\376T\235\273\003\205=\275\333\214\355\274\362Ip\2742\";=\020\340\000\275\342\366\333\274T\266<=\237]\026=\020l\330\274\302G\360;\327\216\257\274\234\217 \275\010\202\232<\000!\305\272\245r\004\275o9\307\272&\366\267\274>\023\003=\270\367>=;H\351\273\312x6=/\262\325\274ZZ\324\274\213C\031\275\210\204\036\275\017\010\317\274\250;\317<\304\332\010=\rq\277<\361\032\203;|\006\343\274\3275\336\274\205\2271\275\375\017`<1\357\213\274\252\376\276\274\271\264\257\273:n\255\273\rG\010=(\221\222<\331\\\321<\247\203\375<Z\257\002=\325\267\231<\224,\031=\337\221\332\274\307^\306\274S\235t<u\217\017;<\250\207<\231\244\242\274\321%7=vte<\237\312\202\274e\2333\275x\323\275<h\265/\274~\013\025=\3151\2626\233\331\354\274\250\351~\274\200;c<7/\241\273\232\320`<\236:\347\274\003\343\353\274\242\204\201\273\t\244\032=\357\023\272\274k\327;\275#\213\037\275K>\222;~3g<\373\250\032\275\032\337\225\273\024\321\362<\367\007\003\275\034\362\004\275g\351C\274\007\225\206\274\2666q\274\265\323 \275\313\005\223\274\307f9\2752\341\304\274&\355N<\250d9\274\034\343\014\275\271\030-=\235\216\001\275#\205\023=\330\216\257\274lwK<\335c-<\350\227\003\273\030\003:\275\"Z\371\274{)\003=^\275\213\274\035\0076=\202U$\275\276.\243\274\2475\204<!\261\227<\020\025\322<\323\320\034\275s\021\242<|\351\311;\202\375\201\272\2220\020\275\005\223\254<\000\230,=\225\316\020=\336\345\302<Va:\275\363\027I\274\013\246p\273\214\037H\272\342G\376\274\207[;=\002\216\024=\204\362b;\025\343\212<\240\033\254</\241\271\274\343Zp\2748\210\363\274\034A\313;\251#\225;GB\345<`\313F\273\364\345-\275\006\264K<\250\331\201<y\303\206\2741s\344\274\344\371?;\314)\250\273#\"\324\274\234\244\320<\207\020\226<i\234,=\276\352\333\2748\220\005=\250&\272\273\327A\331\274\224\260\240\274\343a?\275 \316\010<\2738\013;b\2238\274PT\367<d\236\373\274\203wy<bnK<r@\\\273b\000k<\263\300\010\275\356\'>=z\0275\275\224/\226\273K\242\033=\376\301-<\215T\370\274K\331!=H\263\025\274\357\002\'\275&c\230\274\310D\035\274\231U\003=~\212\245\273\377:\'\275c\350\327\274#\271W<\024X?\275\027\340\004=\230\372\255<\215\230\010\275\357\322\226<PdY<\267}\267;\372$>=\207\001\032\275Y\3532\274z[\032\275z\364\n=\0223\331\274\334\212\013\2744\360\256;\351!\032<xH\025\274\003\313\036\274\371\262\351\274\217L\315<s\241\254\274\002E\246<x\200\026\273\014\303)\275\367\375\363\274,\0337=\346\021r<wH\245\274\272\265\204<\266\324\257<\244\253\220\272\036\365\360\274\231d\307\273\222\3323\275\236\3168\2758]\244\274\202I\000\274\212\365(\275\262\215\016=\323\274\004=\311\352M\274?\002\007=Z@\273\274\255\257\242<6\356C=B\331*=\225XZ<\256:\010\275\207\236\016\275\330\302r<\313S\251\273\335`V\273\351\205d;\3534\025=P\356\020;\231\027%=\336\243\332<<\373\220<\357\364,<\221\016S\274\245\032\032\275\324>l<\003C\342\272\317\365\230\274\321\273\014=1\253\r=\332\206\235</\273\360<S\021\242\274\341\341\307\274\272\217.\275\203\373\211<\3105h<b\1778\275]\265\257\274\251S\232;\240\234>\275i\323\\<wX\020\275\370\217\307<\013=\001\275Po\243\274w\260\034\274#\217>\274U\305K\271\007Y\306;\273Z1\275\306\262\256<\201\3129\275a\204\334\274\0051J<\210\304\347\274o\247?\2758\r\"\275\356.\243\274\265\376\360\274\n\240\242<B\227\327<\272\314!\275\321Y\325\274\\\020\316\274u\374\245\274\351Mg\274j/\372\274\007\232\227\274\\\003\361<\276*!\275\324\254\035\274\016\353N\274);1\275\326\214,=\201\201\t\275B+u\274\252\\7=\342\270\357\274\363E\372;wL\376<\316\333\033=\007\230\250\274\302^\371<\242@\363;\013\272\321\273\325c\r=\321\267*=\251z\302\274\237\356\017=\235\037\200\274\254*\342\273Y\3371=\377=!\274\211H9=\324\327\023\275t\347\374<\016si\272\031\230\276\2742\270\364<\026O\354\273\030!\030=\276\"\321< %\275\274\346\326\367<OR-\275\225\326[;d\022$=\362\203a<>|\275\273J\355H=+\314-=\225\2459\275\332|\000\275?\030\014\275>\212\276:\231\303\013<i1\214\274\316\317\217\273\204?\037<\333K\340\274\306\206A<\201\364\013\275a\335\333\274\255\270\214\274\206\3772\275\365{\'\275A\241w;[r==\034O<<\321d\036=\263\255\271<K\271>\274{\022\217<8\377\372\270~\302\007\275\004\362\347\273\036{\210\274H\367\326<CVC\275!\306\n\275\256\201s<\302o\016=\357\341\215<\306N&=>\277*=\344c\264<?-\213;=\037\032=\220|G<\356\244\031=\025\235\265\274\337\256z;|-\341\274\241\370==\340\275\025\271\300\326\337\274\007\303&9\035\247\264\274h\272\274;5\275\254\273}\240==\211\005\267\274\317\241g<\276u3=\34399<\032\032\250;\2540&\275\356q\351\274\031\204U\274\224\371\021=\342\006\032\274\260\004\035\274\373\376\014=:B\007\275}\312\016\275\200\262\027\275\225\362\325\274i\302\270<?2^\274\"qL=\322\215\300\274\273\337\373<\033]\243\274\366\303\306\274\254\271.=\036\247%=\307\321$\274\010O\273\274u\245X\274\320!\224\271\223\252\033\275\255\240\261<\313\307\350<\001\000\030=.\317\322\2748r2\275\2218\024;\247:\345\274\003\241\236<\330\250)=\2733<=\311\271\006<\343M\250<\250\317\t=#M\360\274ws\365\274`P\267\273:~\2519B\244\000\275(\332>\273z1O\274\301\334j\274gn\332<D\223h<\357\235\026\2759\333\210<\271\375\357\274\266kA<\220\003h<\031Lk\274\005\216\320\274\246\002\037\274I~\"=~\243\300\274Z\337\367;\244 \305:\014\260%=\373\265\004\274\343\247\364<5\225\263\274b\2621=\204\261\214<\032k\004\275\235\346P=\215\215\035:\315\t\332;\201\253(=\317)\003\274\213\000<=UA#<\346\004\013\275c\230\021\274\252\355\022\273\035D;\275jH\250<\363+\r\275\354c\216;\343j-\2732\236W\273O4\201<\356o\010=\222w\367<\240i9\275\361\336=\275qS>;\214\201z<\342\272\211\273(\212\207:\315Z\200\274\272\2217\275w!\223\274J\337v<\367B\035\275\246+Q<U&\243\274\321~>\275\220P3\273\244\'\007\275\022\277&=\213\200\375\274\347{\"\275Z#\033\275\246T,\274\225\260\233;\373m\203\274\337bG<Oc\254<\177\251\367<\227aC=5\230\375<y2\014=P&\271<c%\256\274el\254\274\336^\343<\221\"\232\274^\024G<\240!\000=B5\332\274R\330\306<#\267\271<y-B<\340\352\274;\213K\304<5\301P<\026q\354\273\360j\247<Z\227\277;\003\277\002=4U\014=\354\367\274\2743\243F\274\000\363\201\274\306\214\366<z\016(=\240H\321<\206\336\003=\316\262\'<\356x\234<`f\342<\253\220\221<\034\222\360<!\030\037=\026\351\340\274pP0<\014\253\266<^\223&=tU\233\274\010\350\037<>\251,=\005t1\275K\274\037\275?\332\314<\356\205{<\030\301\325\274\206;\331\274j\275@\275\234\007)=s\212\217<\315\241\325\274\003\334\032<9y-=\274\242\340<+9\271:\001\355\023={W\211<\003\365\326<0\345<\275\335\224\025\275\004\222\307\274\241^\006\275E\004\355\273\263\007\260\274\227O\357\274\272\340\207\274q;\022=\207\001\302\272l\333\230<*\nt\271\207\212\021=)K\200\273P\272\314<\233\266\344\2747\201\016<\207\372%\275\022\225\201\274\271m\"=j68=\373\360\377\273\343\322w<\2650 =C\365\223\273\275s\310\274X?N<\264\034\244<\240K\010=\272\363\251<\032d\034==9\002\275Te\374<S\320/=\226\231\367<x7\377\274\n\3370;fJ\271\274\212\372\270\274:\003A\274G-9\272\035\210\t<W`\247\274;O-\275\326\3702=[\r\342<A\3779\275k\010\035=\'/\307\273S\007\005=v\303\265\273|\244\204\274\226\274\331\274c\300-\275\260=\247\274\223\365\220;\036\231\327<\335GP<\376\325\304\274\225N\243<p\262\001<w\335X<\273\367\203\274r\364\241\274\363\276\032=L-\"=v83=T\235\371\274$\247\246\274\275\264\261<\037\371,\275J<0\275x\353\204<l\261\'<\242\377}\274\000\305\225\273\322\207\315;*\232\016=J\357\322;\275\241\374\274\327\215\355<\223\335L\272\360\003+\273\2539\t\275\344\343\262;\026\213\250\274\271\213\341\274K\316\014=\220\204\344\274|\214\235<\000\005\261<\367\003$<o\032\037=*\365b\274\231\3244<\225\014\205<\215g\371\2748-\277<\203\244:\274\267k6<\365\313\021=}> =\206\203\n\275P\203\032=D\251\205\274\316H\353\273\236/\020=\177($\275\315J6=\2152\311<U\235\344<AV\203\274?J\262\273\312\331\032=J\017\010=\354rP<\311\361\n=#\250\224<K\311\266\274\317k\336\274X\n-<\307%\342;\037w.=tM\200<\256\313t\274\0060\306<\346\035\036=\200to\273\244X\027=c;$=&\3369=\312\311\034=C\3034=\240T\317;;\2649\275e\325;\275\204\262\017=\205\363\320;\240\261P\273\266\007\037\275\037\t^\274E\313H;\253\2408\275#|\277<Z9\260\273d8/\273b[\347<\013qA<\013\252\025\275|\315\374\274\3357\231:n\200$=\016y<=\'\257\"\275Q\201\237<\335\033\363\274s\034\372\273\364\355\374<\252\2453=@o\374\274\327\303\013\274\036\026\261:\252\210\262\274G\\F<\226_\345\272\0071\226\274(\036C\274\351\r,=qta<4\023,\275\336\323]\2747~\000\275\327z:=\202j\027\2751\300\021\275\237\237<=\366\305\244<\334\217-\275\256=\030\272\314Y\377\274;\366\365\274Q\nk<\364+(=jV\227\274u\241\337<@\355\356\273\206\354\023=\371\310\254\274\221\216\245\274no\010<L=\204<\265v\030<\007C\316\273\323\003\373\274\243\343\241\274\343|(=\364\2212=-\212\274\274\307\017\214\274\304\346\305\274\334\345\317\274\374\241\226\274BU\231<\336\014\333<\325&\013\275Df\345<\267\260l\272\344\033o\2724\t\326\274\211\334\n\274\201\351\252<\022Y\205<\3752\275\273\347\316\014\2755\216\022=\362~\361\272|.\227\273\331\376/\275\354\324\333<\2449\340<\245\037\244\274\223\350\213<\353\020\317;b\037H;\005\274Z<\270\321\200<\224gg\274\275z\275;jR1\275\320\353 ;\201\225\231\274\375\254~\274n\243\366<F\253\001\275`\365!=\346\370\002\275\237\300\351\274y\321\211\2744\217\257<2zs\274u\3300<Dr/\275\327y\022\272YN\r\275V|\246<\261\346\t\274\265I\203\274\276\265\013=u)\375<\337O8\275ff\357<\246<!=\t\021\002\275\032\276\017=\021\374\004\275\376!\302\274N\202\016<\372D\341\274SP\227:\004A\322<\r\364\267\274\265\223\341;O\315\231\274:;\261<M\332\034\272\004$\274<\320\302\r\275\347\305,\275b\247g\274\220\020\234;\372\016O\274\260\357\266\273\215\317\221\274\315sY\274j?\345\274\212\264\355\274$:\t\275c\324>\275>/\226<\035`#\275\032\351\317\274J?y\274\227\343\001;S\262d<P\r\371\274`\t\036\2752,\235<\2702\220;\010\020\023\274\241\304o<\364\242\003\275\277j<=\003\3540\275\277.\345;\314V\244<\212KK<-\242\000=\34547\275/\213\317\273F\374\020=\274\376\220<H\372\241<\300\375\355:\303\354\024\275\226\331-=[&u\272\315G\t<\301\277\242<5\031^\274\204\037m<]\315\352\270\010\030\016\275\365\353\331\274u\331\375\274\014b<\275\030\301\261<o39=\331\034)\275\265\006\220;\247\372b\274\306Q\344\274\254.\365<\007\0234\271\217xf\274\331f\002\275\361t#\275\203\250\374<\350B\241<o\325\375\274<\337\001\275F\231\233;H\376\370<\324x\005=\036a.\275tk\273<W\0329=\367\272\210\274TF\364<\335v\325\274\333\257\014;\nz\363\274\305\334\252\274\232\311F;\361\237M\274\0072\373\274q\226\232\273\216C\017\275\035\3479=f`\345<\354\311\223\274\377\213\"\275\266W:\275\234^\274\274\353\t\237<\331\210\014=B\363\235\273\261u\024=\322\205\032\275\230\227\031=>\353\224\274\n\363\025\2756\016Y\274y\024p<Y\245\252\274\333\225\030=\375m2<\016\026\326;\303=\340\274\317\230!<\367\377\007=hEi<sJ\320<\004\tp<\264\351\257\273\210L\267\274\021\003%\275*\362\317\272w\037\221<\236\022\323<N\364\002=\3355\347:/\214<=\035:{\273\221\363\300<\366\3102\275-\022>=\031\2365=\335J(=\322\254\277<\220\227\342<M\204A\274\206\335\277<\354\254|\274\231V\236;\241Y\342<\270\021\250\271\3259\215<z\356\313\274\362\267\250;\202\362\002\275w\213(\274\277\216#=\372H,=\0272V<\177:\n\274\312h\351\272\217\0360\275\276X\034= \233\331<\370\366\274<z5\204\274\200\304@\274{\036\317\274[\332\261\274\271%K=\352E\000=\234\314\340\274O\375\212\274\nw\022\275\364\345h\274\215R\'\275\327\273\271\274\037!\035=\310N\022\275\342;T\274Z/\314\274l\364\332<\377\337A\274\201\321\007\275\266Q\001\275\2650\023=\027\005(=\t\272\205\273\334\326\203<\373\332\231<\261\201$\275\332\251\204\274\353F\312<\375*w<\274\t7\275\020\177<<I*\316:\234p\000\275O\034*=\306\212g<\323\323)=\231h\002\275\201C\377\2742\233\033\272P\2259=\353$\014;\254\n\330\273:\223\031\275\241W\376\274,\346\007=\313\237c<\205\361-\275\300~\340\274\307u&=R\301\n<B6+\275\007\206\222;\337\256\014\272\342oU=\005iv\273\345\227\255\273-\377\266<\365\241\270<\305\005\242<8z\333<A\204\245<\222\374\036;\224\226\320\274eX\'=\024\371\203\274\3774&=\363\345==Fj\237\274\324\277!\274\001\266\367<\206o\031\274\336\241+\275O\033v\274\252\263X\274\346Y\033=M\367.=]\003\220<O\\#\275\177\253(\275\224\277\256<U\257\t\275:\024\200;\211-\331\274IX#=\302\372\373:Q\316\302\274\tv\212\274!)\021\274sy\027=c\363\037=x\017\033=\032?\354\273\247\344\363;\025\350\356\274\334N3<\271\033\264\274\270\276#<\342\301\213\273\034\200\031=\361\266\211<\212\340h;2\324\251;m^c;t\323\005=\205[(=\002\250\'\275\273\276]\274\361\3422<\034\374\331<\315\253\270\272\327W\350<7?\305;k\033\223;\246\2042=\362?6=\327e\002\273\004\2152\2758\342?=\3410\256\274\262=+\273\2143j\274~\232\260\274\353Q<\274\204\371N<3\213\313<!\247\366\274|\365\264\274\261\236\350<=\211g<\366\014\200\274\031\304\027=\224\277\341\274\275\231\303\274\002\314\025\275B\033\254\274\032\362\345<1\262\025=\341,-=\361\343\006<wcV<yZk\274\203x^<=\250*=i\2460\275_Ri<\315\310\"\275\014w\312\274\267\304\014\274W\367\241<O\313)\275\301\030&=\0251\017\275\347A*=\315#\364\274u\2038=\255\3300<\301K\303<\325\334\225:\223\330\024=\210\244\230\274\353\004#\274l\222d<\035\255\033\275\021\256\321\274\0143&\275\227\247\353<\342\332)=Q8&\275\206\013\034<\343\225\335\274\022h\322\274\022\367\'\275=\203\027<\226\257 \275\332u =f\262\'\275b\3667<\035\020\017\275\313fO\274\240\005\225;\027\255\265<\353<\354\273\003U\315\274w\244\024=\027v\265\274\3048\000\275\031\224\264<\226\263O;\254#\322<\370\r\307\272S5><$?\002\2752\002\"<\214\240\245\274U\353-=B(\274\273\027\"e\274\202b\275;\302\246\026=\350\203\200\274yD\224\274\241\325 \275zA\336\273r\266\242\274m\n\226\274\370\224x\274\372\202\312<\204\242\n=\304s\244<\031\352\264\274\316\001\270\273\034\227\322\274;\366\204<\241t\343\273it,=i\336\216\274\333r@=\325\332%=h\0351\275Cc\260<\020C\222<\016\017\243<\031\323\303<6\033]\273\n\360\007\275\001[\005=\345\225\224\274\350j;\275?\232\227<]t,=\354\255(\274~\233\304;\215p+=\226\035\276\274\032\313^<\244\355\365<M \347\273\206W-=\177L\021\275\264PR\274\316u&\275;X\021\275\324\200\357\274!a\325<\323\3470\275y|7=,\253\357\274\224\034\t\275`<8={(.\274\352\255\310\273\232\0355\275\310\227\271\273TZj<V\271\227<\325c%=\204\331\204;\264\346\277\274\220\213\314<\264e\214\274+<\343<\004\023\006=\364+\310\274H\372\255\274\307\025\351\273\2272o<B\376\354\274Z\360\277<`3=\274\030\302\343\2740\2031= -i\2730\347\n\274{)G<\275\331q;,\237i<\256\034\263;\003\216\016=\320\333\"=7\233\236\274\345\323\326<\316\007\341;9\270\207<\212R\t<\3733:\275\354\036\307\274\367\251\344<-\007P\274\000P&\272\377\320\010\274q<-=\2046N\274\356\003\016\275\324#:\275\256+\036=\336\002@=E\236\022=\351\0077=\221\3464\275\264\336\301\274\033\245 \275\316\370\r\273\213\372\017\275E\020<9\023V\r\275!\357\223;\354\246\301\274_\367\027<\030\370(=\215=9<\240M;\275\310\325\024\275\325\353\270\274=Zk<\224\'\005<t\366\021=\357n+\275o\336\220<\2345\"\275\'m\246\274\275r\374\274\212b\265<\212\373\362\274\000\233=<{\3250;\323\273\243<pA@=xw\253\273,}\321\274&\3237=\254\350\310<\360\225L\274.\252\207\274T\331\'=\227\217x<\316\n\235<9+\032\275\255v\207;\001\245<\2758\021\343\274\027\312J\274\206<\243<\245v;\274`\306\354<_\022\n=\002}\246\274{c\242<xrP92\374\020\2750\270\306<\207\271*=\277\362\341<\226\350`<\327\277(\275\023\215\030\274ne\317<\240G\017<^_\003\275\374F\027=7\032\325\273=l\010\275\353\365\231;\377\013\010\275\210V\017\275E\0379\274.\215\301<A\230\024=\354\336\227;\255/\240\274IO\010\275\271\323\3479n\253\004<\264:\233<\014\221\032\275\205\313\202<\007\317\031=+y\026<\276\024\016\275B\247>\275\350q9;\355\343\203<\"\226\230\273\273\032\327<Q\323$\274\356Ga\272u\220\215\274\032Z\263\273\223\344\334<eK\221<-Z\253\274}u\222\274\203\312\245\274\031\330\243<ZL\217\272\027`\"=a\362\t\275\340\r\277<\024\366\360;\321\305\344\274|d\350; \361\357<5\034+;\231\213\004=\230\327R\274\335zz<\245+\001=\214;,\275\352.1:\353\032\350\272\324\363\234\2736x$\275\367\301\333<\302q.\275d\226#\275\031\342H<a\304\372\274V\233\036\275s4\321<\342\3029<$\255\272\273q8\236\274\2710\032\2752\374H<p\267.=\233 \222\274\206\3541=\214\\\'=\276x\364;\326vi<\307\2128=`\246\265<\357>(=\203Z\303\273\202\320\250\274\007/\021\275\3776\033\274w\272\331\274\024\356x<\357O\214<\252\266h\274P\232\344\2725\341\007=\026\345\031=w\323\217<\244]\312\2734\243\314<Q1\351<\371\301\005\275\0316\r\274-\200\271<\362}\010=j\237\234\274{\335$\275\013\321\302\274g:=\275X^\013\2754~\021\273\036U\315<\203\0107=\367\310\002\275\352\343\036\274\276\272\231\272\301\255\366;|1\250;\327\266\200\274\202\236\214\273\301\315)\275l\321\221\273:\3673=y\340\317<\311\3621=R\336Z;\241 $\275\353\230\234<\221\237W;\347\026%\274\227\335C<\321\370\031=\027\354*=\344\017$<\301\034\004\275|\220\255\274\312\225:\275\014\332/\275-d\210\274X\025z\274.\224\377\274\201\000\240<\300\366\033\273\341\274h\273\322\242\330<\203\276\247\274|\244\333<\305\355\204<\334yR<\367i\341<=\"M:\347>5=\007\t\316\274\3075\013=\204\005 =$\205\006\275S\321]<\017P\027=\242H/\275sz\250\274\311\020\240\274\364T\005\273>K\255\274\355\335\370\274\356\241C=Z\3650\275oG\274<\222\357|<Py/\275\037\267)\275&\206\2749\260@\002=\340\252\310\273g\034\032\275y\314\026:\276\325~\274V\274\352;\336\013\257<\300)+=\325\371M\274\353\206\246<T{\370;\036\203\347\274\213\364F\274\014A\335<\346\311\262\274\276\3665=\312S\315\274}B\027=\037l\307<\020\341;\274\003j\n=\027\007\266<\320\010\214<\370\270\321;d\371\343<u^3=\301\325\347<e\033\313\274g}\320\2747\372\314\274\204\002\355\274!\261\255\2743\351\322\274\341)K\274s\364i<J\342\305\274Po\254\273\002\232\t\275\032[T\274\273\2075<K\337\226\274\322\035\362\274W\2116=\201`A\274I\343\333\274\322\336\307\272ww\316\274\020`\"=\300\327\357<\271\3716\2759j\272\274XT\023\274\324\354\226<\220\325\374<\306\250\003\275\3222\264\272a}S\274;\021!\275,\270\252\273t\233 \275y\353\002:\002z\237\274k\022(\275*\001\t=\205#\372<*i\003=\333\324W\274\372U\032\274\2740k;\217\r\005\274\010\020o\274&\252\320\274\255\001[\2742a\013\275Ls`\274\260\025\357\274\t\320\310\274\303\365\375\274_87\274}~2\275\345\221/=Zu.=\377\336\362<\327$\254\274\237\277h<A\336\020=\216\336\315\274\277y\372<`\227\375\274\323\014\231<\362\334>=8\311:<\266\236(\275\265\377\366\274\240\366C<\n\213\005\275>H\334\273\226f\033\275\'\327\010\275b\363\275<MH9\275N\3728=(%\030=4\225\275<\325,k;\030W1=\rE\022=S\374\007=\327y(\274\337Y\222\274\363\350$<\314\304]\272w\343\255\273\220\205\t=s]+\275S,\336<z\334\032\275LA\306\274y\255,\275\244\252\241\273W\3557<o\213\235<\252L\022=K]\336;\225\306\203\273\2265\227\274\341\232)=\202\373\300\274\257z0=z\207\352<\277\232\234\273~\347\227\274xt\n<\200V\035\275\262\221\347<H\212\302\274\335X\224<\371%k;\256\177,\274\2751.\275\026\274\016\275}\211\016\275ix#\2731\327{\2745H\300<\352y\244\2748\264\241<?\327\234\274\277\273\216\273%9\253<\201C\004=\332\352\177<\251&\352<W`\'<\313\000&=S~\000=\035\351\013\275\333\311\202<zl\001\275\345\350\304\274\264o\022=\'\365\013=\243\201\n=\355/\337<Q\371$\275\025\343\037\274_\311z\273\204\364m;\335<d\274T\201\214\274ix\246<$Q\203\274\327rh\2747\206\r=4\253\205<\335\017\007\275\020t\000=\207\005\262\274M\\\021<O\3319=n\346\233<4!\325\274\'\321\213<\235R\030=rw\006\275\267z\005<\232I\365;\235\270\362<\025\007\027\275\377\212\022=P\303\016=\275\004\373\273No:<\025k\336<\215\331L=y\276\036=\2516\315\273\251p\253\273\274m1<b\211c<\007\261\333\2747\235{;\206\364\032\275-\263\263\274\313u\220\274\022\322\362;\250\303\022\274[\324\002=\356C\337\273\014z\r\274\364zQ\273*\230P;us\233;\316\014\211<\t\376\030\275\350\212w;\342a\001\275\241t\272\274\273\223\255<\022\\%=\334\247\336<`\254\010\275\355\326&;\353\3649=q\256\253<\274\256\037\2752\\\201:\363B\004\274\2409\365\274\257\235>=M\254\264\272|\326\014\275K\277\355\273\313\305?=\301\203\361<j\013\004=\221\216\246<\306\'\313\274\214\322\036=\272_N;;\305\355<P\302)\275\236\037g\274\242\022\350\272q\2647=pk\237<\332?\013\274\007\363\307;@\0052=W^\341\273 $\377\272\261\030#\275I\222\260\273M\372\327\2749x\025\275\377\304-\275\226X\275\274~\347\t=[\224\271\274,~\366<m[\014\275ql\244\274N\211\313\274\002]&\275+\023\364<\253]\360;\370+:\275\224\332\020\275\351P\016<\216\347E<\334\232\025\272\252=\247<\313\002*\273n\3507;l\023\254\274\303\002\232<:\022\306\274\300\356\023=\215\374=<\217\351\263\274fx5\275\246\020\035\275B\374\306<\231q\253<\323\251\023=\005mB\275CD\302;@\223\002=1\242\324\274\247\306\214\274\006\375\227;\305\017\r\275e\244-=\345\2357\275\204_\007\2756\371A=\351\025\312<\351O1\275\370l\311\274\357\3722=~- \275cd&=~m\341<\372\343\033=\260#]\274\252\353\271<\\\376\337;|E\'=QM\264\273\353Po<\250\310\021;jT\354<\351\006)\274\373\345\t\274\336\264\265\274;\033y\274$:\002\275W\373\037=\032M5\275\211\377\225\274\006A\320\274\265\271)=\035\365\227<-;\253\2742P\365<\233\306q\274\222(\235\274\335\013>\273B\t.\275\203\201s\274x\337\261\274%\262\365\274wo\365<\244\3630\275\370\361\345<\373K\334<\020\020[\274\366\304\250<\322\202\037=R*\346<W\031\350\274`50\275\000\253\235<\370\340#=\343\355\262\274\261\324;=\271\331\245;\034\234>\275-{E\274\246K\005=\347Ui\274W&\031\275>L\355\274\217\325\272;5N/=\023\323\037\275\031\033\"<Z1p\274{-\214\273\375\037\216\273\300\314L:\314\364~\274\303v&\274!k\360<z\374\035\274\310\371i;\376\273\026<\014\354*=\302B-=\336\\\001=z\363\246\274\205\030\340<\341/ =i12\273,7\263;\252N\352\274iVc\274\234\257\371\274\037\311\017\274\031p\304<\024~\021\275J7O\272\334\200\337;8\026\200\274X!2<\220G\374\274\264\217\027=-\217;<\242\002\271\274Y\t4<)\224$=\205|\027\274\227\030*\272?@\006\275\325\343\t=\366\265\253\274\002s7\275\340+\016\275\355\320\374\274\363s]\272\031E\363<\034i\'=ve\366\274\271\270\020\275\214\212\341<\207=A\274)q\316<p!u<h\304\014<\272z!=(\200\"\274\211}\371;+\307\000:\324,\022=\376\272\220<\363\246\250\274\306,\000\275\207JC<L\304\'\275\036\007*\275\216\333\002\275\0137\346\273V\212\233;\335\020\005=M\245\210;\35329\275*6\027\275\234\006\r=\245:X<\262\321l\274\376\340\020=c\310\217\274\334(\373<\366l\017\274c>\004=\237e\356\274[Y\323<\261\325(\274a\277\004:\203D\030<\221/#\275\320\r\304;<\271\002=\2231$\275\353p6=\262X\353\274\214\005\374<\270\324\325\272?\253Q\2748\004\016\275h{5=\354\321A<\336\345\276\273+\030l<\372O\214\274\"\2074;{i\341\274\036\355\024=y+\262;\212\206\330:\000\305\227<\254\235\357\272\374\375\263\274/^\001=FR;\275\222\313\360<\270\2055=\035\330\254\2730\274\375\274\353\r\244\274\007j\257<\337\263\244\274fe\260;Y.\010\275\036Pw\274\r\341\022\274{\302;\275\3208\331\274\014\212\235<\235w\377\274\026\225\336<\252\214\\<*\240&=\213\330\333<i\243\306<i\353K;\276\354\352;\371p_\274\\*\320:\367\246S<O\334\026< \310\214\274\222\232\001\272\204]\247\274\017\255\"=0\236\303\274\325k%<\024\367\022\274\361J\025\275\327K\013=\2675\371\274\237\316\002\274L},=\352\314W\274\303X$\275\225!\021\275\340\310\037\275\271H\t=\244\236\235\274\253\376\213\274\330:\213\273\346\231\302\274Qo\341<\265\315q;R\334\241<u\330\255<\213\020\t\275\202\324\033\267\231\037\261\274.*\224;x\310/=Q\004e\274\227q\"=\274\205\030;\220\317\246\274\246>$\275\004q\351;r\023\272\272Y\223%=\n\371\241<\313B9\275\006U]\273\023\243\347;v\307\217;D\242$\275\303\362\203<\270\376\n=Ej\300\274\222T\352<\250`O\274\333\234F\274\301\207\031;7\261V\273|\0160\274\334\016\001\275\317\307\333\274\253\260:=u\214 =D\020:<r\346\257<\332,\353;\tf\360<\003\014\372<\253\247U:\271\275\014\274\032Y:\275\234c\"\275\030_\000\275U\262\255\273\026\030\335\274r\034\243\272\220\202:;\023\247\"=\334R;=\210\307\371<\027\327\251\274\030%j<A\t\001\275I\251\214;t\256\"\275K!/\275L\256\031=.\344\003=\204\377\306<\260\350q<!\360t<\325F\303\274cx\024\275\034\"~<6\350\242<~\307a<\263\307\234\273\356_\333\272J\343\350\274v\177\223\274\304\223\223\274\263\016/\275\3473\273\274\272NQ<}\257\021=-\205>\275TT\010\275S!0=>\3650=w\001$=\214\252\327\274\027\247K\274\231\376\202\274\343\334}\274\3518\"=\320\267\322<\255\203#=j\244\006;\312\336\336\274\374s\033=\314\207\003\275D\016\"\272\275\376\306\274\002\324O\274\311\2701=o\335P\272\031\017Z;\217#H;\205\320\305<%\311#\27516\005\273\352\307\316<\013\307T<\234\201g\274@\361\036\275\276u\244\273\0263\202\272{b\276\274a\0106\275\225z\037<e\223:\275\241\217\362\274=\3354;\236I\344\274?\037-:\370\203\360;\327\272\343<\246\006s\274\327\372!\275\307H\313\274\014\3366\275\347\3218=p\013\023\275Gc7\275c\345\362;1\263\377\274m\235\270;$\352>=\322\241\301<\321\247&\275.\325\005=\345p\225\274\233\261A\273 \340\362\274\241\243\336\274\255-\221\274\225\273w<p\364\033\275\272K\2659G^==\312\005!\275\232\024\324<\347\372\365<\274\357\246\274\373\367m\274]\266\361\274\362\275m\274P\030\246\274\003\300\346\273EQ\021\275\276\322%=\370\315\275<\300\350\005=\233\345:=r\325\364\273\355\350s;\216\345\200<\2047\335\274\221\322\000\275\365\253\025=N\263&<\005\352\017=\2215\325\274\242\331\023=\237\313\316<s\231,=UbL<7!\224<\241,|<\013\231\326\272\313\255\245\274?Ai\274\273u\304<{~\252\273>\026\"=\033\220\n\275q\272@<\003\332\276\274\376\247\014\274}%\003\275\330d\273\274\036\240m\274\3353\024\275\304\\\361;\177I\250\274\251*\n\274A!\031<\244O7=\347Q\034=K~\246;\301\217\354\273\360\253\\<\270\364\277<Hm\374<\236\020\353\274\200U*\273\354\220\351\273\001\273:\275\207z<\275\250\n\002;lz_\274\206\212><^g\304<#o==\024O\212\274=\264\010\273\'\215\351\274\336\263\n;\240\304+=h!\302<niV<\274m\236<\000\317\246<\345\037\312\274\241\366\014\275H\226\326\274{\217\346<\376\331:\274\272\344\234;\2574\346<]\233\271\274\304\246\032=\221\362\230<z\027\242\274\207\2677\274J\007\030\275\001\362m<\025\367\037=,\243U9\256}*\274\244\361\345<\225\240#\275xI\225\274U\353\r\275\177c\233<\270\342~\273\234\211\375\274\021+\241\273\024\320\r\275\207\211_:\2303\344<*\t&\274Q\360\r\275C\311\020:\235\003\302;/\217\221<\023\312*\275J\345-\274\370\366\004=\317\331\\\274>a\211\273\266W\274\274\234e\025=\370\350\236<9\010J<u\312\243<\326\017\036=^\325\322\273=0\316<\234\373\300;\240w&=\211\2039=F7\274\267\307&\026\274\376a\013\275\260n\217\274\177\242\017\275+\035\336\274\242m\323\272\252m\004\275\031s\000\275\237\235/\274*\251\225\271\214[\236<\022\355\320\274E\2166\275\366\024\010<MG\250<\026q\206\274v{\217\274\277\302\023\273 6\'\275\336h\255<\2125\366<\256\276\246<6_b\274\273\264\236\272\304\320h:\345\251\200\274\335P!\275\312\3478=\"%><b\204\241\273\023\035\266\2744N\337\274\260\246\327\274o\022\016\275\324f\'\275\337\236\260<\300\030\010\274\306T\312\274\362\036\331<5\325\346\274f]\261\274\017\236j<\352\020\004=\276\2635=\350\022\355<\342\3340;b\254\266:\240\355\377;\034\263\305;\2617\225\274\3526\027=x\3158=lc\331<\335\271\205<\032N\207\274#-\014<\253\255\335<4\020\353\2744G\224<\013D\036\275\271\220\315\274\237\241)\275\313\027#=\340`\022\275\224S\035\275n\217*\274\347\353\020\275\323\277\366<3\242\006\275\202\310\034\274\224-\211<\n\270\032=\022\242\232\274z\225#\275\247w/=\342\346\254:\345\263\264\274\273\367\030\275\334B=\275u\240\005=iF*=i\205!;\2001g\274]6\t=\271$\232\274\314V;\275\214\336\014=Kl#<U\312\317\274\232\247\026=\312\316\346\274\322\301;<Q\325\016<\005g\230<%\336\033\275\256%$;\332Z\353\274\344\010\t\2748|\002=4W\337<JK\276\274x\340\243<n\302\331\274!\350\337\274\\\316<=\007\354\013\275\363\234\225\274\033%\177\2740L\250;\025.\016\275Np\034=\352.\263\274\205}\257\274\341\374\227\273\221]\007\275\203\324\214\274y\031\277\274*\024><\323S^\274=\375$<\004P\201\274}\245\036=\302J\347<\247\3008=\310\245I<\214\266\355\274\t\331\'=\334r\353\274hT\360<3\216\264\274\t+9=I\221\212\274\202\216\r=(\t\021=\337\242\266\274g\213\005\274\334en<\221\333\233\274p\2776<\266\241\357<\215\3732=G\352\314\274\220\n\251\274\002\316\t;l\2733=\017\004\031=C\016\361\274\200~\035\275>\337\276\274\344\2208\273\177e<\274\362K\313\274V\177\376\274\222\226\265\274\005B\004<\350\323O\274J\342\261;x[\206\273\023\000\303<\016+\013=\010\302\322;\352\2010\274\254[\272\273\314\351\202<\022\302\356<\344\3252\274MQ\014\275\347O\026=\2056\306\274f\347.=\214\351\347\274\316^\010\274@\265!\275\251\247\357;L\020\007=\212B\007;;\303j<\356w\n=\031\353\254\274M\220\243\274AC>=V\272\006=\024X4<\022\341\341\272\034J;\274HZ6=\000K\304<k\237\203\274\322\"\311<\272,\271\274\244.&=\275\370?<\361E\035=l\351\031=\332\256\207<Rx\213\273*\273\312\274\320\354?\275\242S\204\273\234d\'=d\3611=\234\322\247\274\"S\366;\200\270\016=\242\221\022\274\276)\002\274\211\031\215<\243\222B=?\245\350\274\200[\013\275\036g>\275g\302\027=ci \275\311\021\r\275\007\332\371<\217\3456=B\276-\275\343y\'\275\027\300\223<Q\\\233<\031\210\247\274\177\3366=\303\366\021\275\364\322\3339qf\344\274\177$\223<\207\003`<\256cE<Y\2508\275\304\272!\275\307\236|\274W\"\205\274\177\225\231\274\254\224\343<\304\020\305\272p\267\006<\301\027\272<\014\264m\272\256\235\241<\024\363k<k\347\303<(^\031=V{\025\275`\023\363\273`l\t\2758\333\034=\200\005\350\274}\205\325\274\205\363\t\275\360\325\327;2\356\201\273\242<\007;BD&<\346\374\036=W\351\016=\220\2353\272\325\3250\275\026\307\370\274_s\221\274\030Y\270<\221\371,\275\244&\000<\236\232C\274\336\251#\274\003X8\274y\326M\274\374\355\324\274\366a:\275 \035<\275IMe\273\343I\320\274\233\010\257<\272\226\320\273^{\204\274\227\261\364<\214=\035=Sx\303<\353\356.\274\233\234\356;\346\364?=\321\260.=\302)7\274\350\230\236;\270\330\037\275)\327\201\274\362\277\330\274\300\t\224\274\017\031\005\275\333\016\025\272+\017\207<\334\251\370\273\353\201\360<\272g\031=\016\366\351<%\032\006;)\201H\274\325\003:\275\277\242\021\275~s^\274C\303y;\243\270\030=\254\360\304\274\374ep;Tv\352\274]\035\351\271L\001\201\274\250\255D\274i\306\260\274\323\256\034=M\032\004=:\230$<A;6<\005\272\017\275g\325J\274\031L\257<,c\252;SR\004=\344WN\273?M\270<jI\005=!6(=\216\n\003\274%T\274\274q\374\303\274\254\213.=\332S\025\275B\365S\274\242\262\337\274Y4\026\274<\0173<\007\232R<Fi\237\274\025+\203\274Z[+=\304\233\266<\261\310E\274\236y\037=Zc.<\347B\300\274g\353\313\274\276\r\315<\240\256\205:4Q\2359\216{\363<\3015)\275i\2617=\371t4\275\361\261\261\274\355\304\006=z\261\n\275\365i\n=\351\352)=n\216\242\274j\2452\274mb\0109\300\003Z\273\035x\271\274P\206\026\275\262\037\364\273\237{:=\357\331\246\274\031\345\024=/!\037\275E\3101<8\\\034\275Y\340\357<\350\0234\275\227\253\303<\317\363-=!\030\342<?\000\037=\222\022\n=\025\365?\275\340\000\236\274\313}\206\274\313\005\343<}\025\030=\225[\275;q(\247\274\276\325\332\274)\035\222<\207\371\211\274J\214#=}\236(\274\203\3306\274\210\211(;\311\272\030=\002K\010\275\320M0<1\306\3179\262\021\007\275\277;\234<\277\030i\274\345)S<L\340\363\2740\\\022\274TQ\352\272H\237\036=\200\206\036\273(\242B;I\2020\2758\\\231<\357_\351\274,U-\275\251[.\274\303\275\237\274\357&\030=\270\245\'<S2@<D\245\022=\264\202\037=~\340\225<?E\007\275\302bY\274j\274==\276\023\013<\317)\243\273F\373\377\274\315\227\026\275t7\022\274\242\372\226\274+\314r<\366\333\210\274X\017\337<\201\340%=\213\235\261<\211\370\247\274\312\342o;\326\217U\274\223\347\021=k\3013=\377\'\037\275,Q+=\210\263+=\031\234\370<\234\300,=\214\010\255\274\257=\331\274\313\020\t\275\177A6=+\366:<rkX<\256\003\354;\032\3142\275T\0365\273\020\367\020\275\036\356\216;\362f\201:\221\307\001\275\005\n\004<1\306\221\273\342\352\267<\212{p\274iQ(\275\227*\017\275\227\207/\274\t\261\311<\364\223\035\273\005\234\035=/\2109=\260B@\275\030H \275\n\2610\275\276\333\023=\273\2641=oh\247\274\237\301/\275\016\217.\274s\026\361\274\355q\017\275\205J\245<.\354\377<\250\372u;\353P\312<\343\2738\275\231XQ<h6/=\234\230\362<\304\217\332\273\253\263\215\273\034d\207<\206\202\261<\267\024*\275\246\t\362\274\277x\205\274!\303\035\275w\326*=k!\024\267m\027\357\274\354?\257\274\373C\352<\301c\362<*\303\r\275D{\343\273\374\234\372;[\027\267<\317\206Y<E\366\374;W(\236;\003\207*=/T\177\274\2655\330\274\300\362\376\274 R\216\274(\210-\275\314/\347\274QCl\2743[\375\274\363\261\224<\323P(\275\221-\021<\021\3109\274v%\276\274\263o?=QU/\275\277\005.\2759\344\035=\014\204\244\274\253\245\346<\360\266\330;N:\244<d\357\002=ad\003<\371\027+=\250?5=\273\306\037=\023[\263\274\005\213\016\275gJ\217\274\306r\337\274\242\314,\275\363\013\212\274n\223\327\274\234/\371:DQ\027\275\375\334\333<\3718\321;^>\210:\202\r\034\274w\'\303<\244j\024\274\272\342\326\271\331\215\031<\255\366\242<4UG<g\3516=dR\304\274\003\220\343<II\234\274\320\013\253\274\014g\376\274\370\341\302<-^\337\274\007\017\327\274\306\320$\275\344\"\214\274\213\250\267\273;\274H;\232j\273\274\303\007!=\035\251?\275p\202\346\272\010\016\"\275N\313\305;J^\031\274\236\275\314\273\373\377\r\274\256\362\033<o\377\262\273;\024&\275\243r\357\273@\2151<R\375\032=\221\331\253<\322\"\207<#\206\r\275\216\363\261\274o\377P<-\245\033\274\217\222\244\274\037a\326\2731\021\'=S\347\211\274\263a:\275\271\315P\274.\3312\275q\035\035:\202\310\006\275 \252\r=\203?\223<,\\:\275\206{\273\274\344\\7\275\02180<\333V@=\344U\020<\331\321\237<\235\213,=sJ\227<\370P\237\274\305\205\246<\322\342\356\274>\313k\274\350l\010<\212K\361\273 K\260<\201\332U\274\034\357\276<A\247\307\273\210\034\226<!j\375\274 \022D<\n\000U;\340\210\217\274\021\350\246\273\2303x\274\311$\250<v\376\031\275\2559\217\274\253\367j\272B\344\332<D\346\350\274N\025\337<\376\3631=\3511\037=F\375\364<`C\036=\264q+\272q\257\026\275u\244\035=6\351\205\274\321\214\246\274\372\t\317<T\213\246<\310% =\254\024\226\274\203,\007=\234\340\020<\311\2579<\n\0212\275\007\020\337<\265R\201\274\312\314\005\275\201\027Z\274E\027\222\274\210~\305\274\023\240\r=\013\312S\274P\360>=\245=\253\273\211{\332<>\343\332\2740\341!\274\346\226,\275\2311\236\274\237\273\025\272\360\255\001\275\"u\375\274\025\341/=_\241!\275f\017\307\274}\252\025\273\304i\330<\005M\203:d\223\023\275i\270,;\343\237\315;\341Z6\275\007\327\247<\325k\304;F\301\271<-\027\262\273\231U\217<\327\363\024=IX+<\326\r\030\275\212\242\031=B5\177<\375\376<\275{\337\364;C\023]\274~\346\003\275\312\326\262\274\323\235\352<\014\334n<\200%2\2757\2118\275Jf-=\366\341j\274g\272\250\274\332x\332\273h\300\334<\212\2157=\001+\002=\253\374\334\274\245\267\356<C\207,\273\246I\215\274\244\024W\274\356\016\025\275\236r(\275\\\355\305\274:V\031\275X\372\227<\216\177#=\250\302\034=\225[j\274\246q\026=\272<\254\274g\033\363;W\361\370\274n\200\006\274\277\255o\274\256\317\004\275\330\253\222\273\373\374\331\273\337d\312<=n}\273\347\361\014\275\304k\021<O1\315\274\257r\002=\221\3466\274\375\351\023=6\007\031<K\217\010=h\321\001=\305cZ\273\271\273\302\274\304\272\017\274%\306\013=z\351A<5e\271<\274\232Z<\357\234\014=\331\314.\275\336\364(\275\321\261!;\305\341\031\275\206@\002=\241v\262\272\211&\317<kN\372\274f-<=R\204\325\274\236\313\310\274o\026-\275ES\317<e\346\017=W\361\361\274\277\215\214\273\275\303;\273\030\356\002=\023\205\241\274,\357\"\275\230\307\256\273\\\344)=\220\177\037=\304\235\004=\023\255 \275\314\005\306\274\024\204\036=\360\301\002\273v\201\026;z%\311\274\301&@=\312\254\245\274q\t\376\274H\317\356\274\010\216\361;j\013f\274\030\2248\274\344\2237=\001\013\016=\213\025\027\275\276\335\243\274\211\207\257\273\257\321\262\274\373\333\270;&{\245\274\222Y\304<\254i\330<\235+\022=]\\\357<o\341\271\274\276US<\313\213\232<\206\1770\275\033\260V\274\360\203\026\275\342V4<2\3115\275\236\340\007\275\315D\326<\270e \275l\376|:.\214\214<\347\372/\273ybH;\353\341\3639C\006\343<\374\241\222<SP3=\254f\"\275V\365D\274B\233\020\274\346=\360\274_\354\306;\221\242%=a;\206<\036\020\357<wT\311<]+\007<#\354 \274yD4<d\256\340\274\017>\303\273\232\224\024=6\025\203<|\023\262<\006\320\205\273P\272-\275\300\366k<\351\303\\\2732\336\222\274\206\273\036\275\'\364\230\274\235u\025=\203\247\331\273\t\323}\272l\013!\275\221\221B\274u\201\253\274a\316\024\274\374\371\316<\003\366\300<\3316*=VU\342\272HMg;\0300\236<$w\031=\320\332(\275\231&\036\275\320\263\331;\222O}\273dB\317<\315\242\210<pI+\275*K\034\275t\326\013=\2279!\275I7\367<\032R4<\203\242!\275h\235\354<o<\036\275\206Q\374<#\241\031\274\273.\200\274V\375\021\274\257\2026\275\026\006x\274!\206:\275I2\036\2753\2563\274\317\217 \275\200\257\026\274\347\231\323<\326\\8<\230\0175\275>i\233<\207<\261<L\030\351<H\302\361<\032\251,=X\r6\275\330P\177<\362\357\241<\014\200\003\271\370#\343<kB\333;sL\365<\013\341\203\274\340\2102\275\240\303C\273\336E\034=g/5\275\316\367\363<$\342\320\274U,:\274\021i\300\274\323\326\022\275\260\020\217<\302\323\0378\303\246\357\274,\323\312\274N\370\367;\217\317}<\027/\001=\357G\"\274Iv(\275\002\005$=\254\017\034=\204n\205\274\210%!\275b\263\024\275\323\305\000=\200n\300\274\360\267\035=`\215\224<w]\361\274I[\264\274~\377\270<v)9=\"\320\006=#\013\007\273x\250\334<1\225>\274P\200\361\274d\336\232\274\000Q\035\273\373fz;\215\0241\274\335\355\242\274\322\'r<\210b/=T\222\265\274\262\340\232<?I\273<\ru\232\274\027\340\355\274\002\2712\275/\366\240<\347\227\331\274\321\273g\272\024\215\234<\250\314\346:\323\"8=l}\263<\377\373\033==xO;\024\354\362<}\256\235\274#:\255<q\201\366<Z\022\322\273\0206\243\274\374\263\210\274a\272\002\275\235/\334<$\n+=\223)7\275\353\315\324\274]o\030\273x\355[<\265\r-\271<\322\253;Ex\254\273v\017\"\275\343\222-\275\242k\210\274\270\217\343:\245\352\230<\362\367\027\275$,8\273\3141\236\273(\376\007=\316\245\006=\363\200\007\275\345y\272\274\311g\210;s\3319=R:\353<*\005\263;\352\212\025\275\360\321\007\275\031\225\013\273\266\004\322<\301^\t=\331\372 =\354H\320\273\331\205\367;(e!=^\007i\274\006\227\246\274\353\013\253\272\322_\207\272\340\356\002;d\300\342\273\2712&=\355#\341\274j\313\013=W-\005\275\232\022*\273\033_\202\274\351\021(\275N_\222<X\3241\2753.9\275M}\220<\013S\361<\0242\241\274\261\375\350\274\207v]\274\2029\334<W\213\234\274\360$\035=\367\270\335<\214\272(\275\325\223\336<\275%\344\274t\311z<\275y\021=\241\027\317\273z\227,=\253S\002\275\346q2\273/\327 \275N\216\032;\r\313g<\245\214\017\275\364\275?=| M<\213H:\275\204d&=}\366/\274\\\367\016<\327M\337\272\370\236\250<\300:b\274\362m[<h\326\264<a\211c<OT\273\274*\275z\274.\343\001<\232\326~<9\252\327\273\020\336\302\274\3139\277\274X\361*=\312<\213<\235\341\333;\224\2728=\231oI<\255\2102=\312|\030\275\204\256\355;\273\243\320\274\2341!=\2077\253\2748\000<=_t\225\274\247\261\275<\3733#\2754\3353\275E4\220<\2558\n\275l>\n<U\211\203<\254l\240\274\013\2637\275\317&\036=4\0212=#\342\007\273\035\305\010\275\271\320\265\274\250\310\371\271\22103:B\203\266<\244\372\002\274\224\030\205\274\320\0067\275\200\347\313<.\363\005=\204\3143:\267\246P<\366\263\024=4\362\357\274\221*\345\274\357#\370\274\177:\017=v\267\315\273\3231f;^|\t=\216$\243\274\317\235\007<P\314p;KA\263\274\263\237\013\274d\206\013\272m\033\201<;\321\037=\036h\236\274\005\2165\275[\376\020=\225\367\r\275j:\022\275\213W\376<\262\3155=x1\313<q\235<=\335=\351\274\r\240J<]\271\205<\275=1=M\366\232<\031=\215<@(1<\007\303\r\273\004\217\376;\313\334\032;\337\304\236<\206.\275\274&w\006=Yy\262\274\375H\'\275\267\r\360\273\377\211\271;\214\271;=\241\220\003\275{\314Q\274-\270B\274\312u\353\273\252\004\035\275\272\350\010\275&\260\003\275\320.\254<`C\227<cI\250\273(P/\275t\317(=\351\370\003\275\250\277\223\274\004\317\205<XN]<\330\312\036\275\032\n\225;o\036\007<$(\337<\22403=\034\201^\274\340\003\243<\034x\230<P\375\334\274\007\245 \275\221w/\2758W\215\274\234^;\275\265\016\001\273\006\365\226<\232\215\306\274\232\304\252\274\361\0062=S\215b\2745\370\344:m\223\033\275K+\003=\353\247\260\274R\2444\273_;1\275\341$=<S\272\n\275\246\2775\274\016\375/=\232.\253\274\374|6=R\037\364\274\036:9=|\206\030\275\331\343\224<&\327\034=\333[\314<{\264A\274,\267k\273W07=t\346.=@]v\274@\344\342<\211C\034\275\336\252>=40\034=\363\272\304\273\302\350\301\274\322\345\355\274\350T;<\333~\340\274_\317o\274\267\327\002\273(\213\321:\237\366,\275Z\375\026\274\367\304\032\275>\013\207;\354\005\277\271\303 \316\274\300U.<\214A\330<M\221\036\275\010W\014=\000\2305<9\304b<\202\204\032\275\034\t\333<\275\220\226\273\232Y\014=\332 \351<\274\211\022=~\247\035=es!=\237\361\344\274\t\305\030\275\257\327\365:44\305<_\247E\274\000\370,;\206\324\347\274Oy\311\273\347\226\036\275\234[\325\274QC\006<\224\324\307<\021\367\022=\321L\331\274\321\370r<\223O\352\274\222T\007\275g\376\337\274\306\332>=Q\202\016=\357\0338\275\264\301*\275\331\374\241</O\026=\377\002\007=<\266\205\273^\033;<\331\\]<\364\020\316\274=\230%={\356/=\336-?=\364\211\025\273\362\371\035=\362\205:=m\316M\2740\327\324\272k\027*=%(\273<N\302\031=[36\274\005\262\003\275A@\230\274\254\224\313<R5\204\274\374\025\324\274\226\215_<A\005;\275v\021\275<\013\343\310<`\272\230<-\206\017\275\217&Y<\"\331\202\274<M\321\274-,\263\274\237\313\331<?V\371\274\0024\262<\323B\033=\215\3269=r\262\220<\357\021\252\273\2707Y\274qs\345\274\rj\347\274\231\341C<\341^*\275F\364\277:\252\023\345<\331\204\275<2?\353\274\210<$=\346l\022\275\021\256\'=\332J\030=\2410\001\275\353l\240\274\217\003$=~\344u\274\237\243e<p\'+\275\303\361\356\274\025E\302<\300t\264<\352R5=\332^\344\273(F@\273\"\303\004=\231\333{\274\003UC<\254\357N\2744\2726=;\251+\273&\273P\274\230\000\361<@\215\020=z\335\023\275\267\205\373\273@_#\274\311\362\200<$\376\231;\373=\261\274Sk\202<\277(\022=\343Z%=U3\006=2\251\000\274\3321\202<C\306\"\275\260\201}<\275\223\272\274\"\244\210;/\354\227\274\235E\013\275\211\007\321\274\232B\275<H\271\362\274\335\326\243<^\345\007=>\360P\274\306\017\311<\367\267\014\275[I\206;\313m\377<\252+6\275\245\350\360\274\021a\022=D6u<?\222\212<g\232(<[l\264\274-\3004=\234\332\030=\346b\n\275k\230=<\364\005\013=\362\320\202\274i\220\';\334*\355\274{\006\274\274b\226\222<Q\375\255\274\327c)\274VS\225<\262\r\237\274\242\367\355\2749F)=\243\033\'\274(s\322<{\324\314\274\315\264\036\275\215\242+=\337\333!=\302\304\224\274\224\255&=\000\332\272\274\036\3579<\207r\035\275=U+\275f\341\022<v\334p\274 3.=\345\024\024<\010\0347=n\321\334\274\324\227\331\273\276P\"\275\235\341\232\2740\254\216<\217\325\276\2742\3055\275e\303\251<G&,\275C\257^\274+\243\002\275\333\263\036\275\324\037\250\2745)\372\273\226\232+\275\316\027\025\275\236\222F\273\326C\330<\341\3263=o\331*=3\035\337<\000P\004=MG\265<\203\357\007<\220\342\336<\226p =\360\332\364:A\215)\275\n\341\027\274\304\337\346\274\364\216\234<pB#<\220\363\363\274\007\3126<`\246\221<\014\220\200<}\222.\275\227\"8\275\356B\253\274T\261\274\274\n\215\240<\330H@< \000\341<\014\017V\274\336\337\002<\tJ\r=\364\032\022\275\n\257\034=\342c\'=D\017\004\275X=c\274-!\205<8\364\014\275\365\317\327<\212\234\363\274\271wX;\271@\227\274\014/\366\274\247M\374:\361\230\315\274\223G\376;T] \272t\356\301\274J\311\212<\325\003\010\275\213\241+\274N]\314\274+\376\243<pX <\005\271\024=\032\236m\274\354\242\311<&\2609\275\271\267\034\275\025\005\025;\036\337\233<?\233.\273\346\033\026\275\216\3160=t\3566\274\321\211)=\377.-\275\304\243\276<\013#\320\273\030\021\314:\371\215\022=\236I\367<\334\033\023<\253u\033\275\262h\362<G7\360<\370\267\201<\024@ =\345q\343\273X\344\315<\330\027\022\275\027\361\255<\002\317\'\275\t;o<\304\317Y\274\355!m\273\330C\374\274)\017\021=&z\305<\260\205\037=Di\005\275\352\356\236\274\210~\220\273$\206\"=\311{\267\274\315A\370<\376_\014\275 \202(\275\364v\004<\331\233\\\274c\251\031\272\340\201\230\274\344\375\003=\230\n\036\275\312\010\367:\032\215\030\275h16=\226\322\302;\356\353\307<\251\006.\275\364]m\274.c\265\274_\202\016=L\010k\273)\005\266\274t\034\202\274\223{\245\273\205\207\227<O\244\020\275\335v\t=I\322M;\315\252\026=@B\350\274t\260;\275U?\270<\327\215\351<\227\305K<\315\303\343<H\351\010\275]\257\212;\301\305\023\274\272}P;p\224\323\273\273\024\223<\'\222\245<\2372\'\274 xH\273\t\242\354\274\000\360\345<\353\355Z\274\372q\220\274\232h>\274\016%\177\271\341\203\033\275w\356\032=\215\025\343\274\376IQ\273(\304\377<}\234\273\274\253\375\324\273\200\375\034=\367F\033\275Z\215p;`\021\221\274m\302\034\275Q\306\036\275\261\3200=\340\352\307\274\214\244%=u\237\010<[\035\023\275\267\t\240<\200\375\224<\373K\025\275\307s\260\274\202\027\334\274[i>=\031\370\207<\0308D\274\325cF\273\305\346\377;\022\374\245:\337\225p\274\244\2609\275\352\362!=#\016\033\275\225,:\273\026\343\375\271\036\242\035\273\245\n&\274$\374\277\274\002i@<\032u\351\274|\370\267\274\271QV<0\215\n=Q\023\207<\277\372\007\275\316\357\255\274\313*\030\275\271\244\323\274\000\310\r\274q\276\355\274\003\273\277<*VU;0\r\363\274\246\262\'=\rr\000\274Z\375\376\273\354\234f;Yf;=\371\255c\2743\321><\371\217\355\2733\355\211\274+\251)\275\345iL<\"2v\272\320>N\271\270#&<\013\3750=\246\375\352\274\364{;=-\022\222<G\255\234\274\013\334\233\274\362\337B<\227\0239\275\237\\|<\245\236\032\274{\213\234<{\256\271\274\311\266*=\364Z\326<oR\363<\301\273\274<N\342\302\274\252\005P\274S\275\364\274/\364\307<\352\200\000=]p7\273\032\370\024<(\331\"\2755\023\327<\376\325/=\332\037{\274qI\005</\010\023;=\231A=**\215<L\304\023\275\004\266O<\333!\257</\226\022\275d\023\242<\336\330<\275\026\177\024\275(-\267<\220\002\034\275\200\265\031<.\275\330\274\322\272>\275\223kh<S*\035\275\250\2056\272\252\326\023<\017\006j\274RP\201\273\226\3361=\371\\\001\275%\343\254<\260{\331\272N|\261<Z\232]\274u\236\r=\200\305\327<\222\207\316:\3518\346;; \217<\216t\001;\256\0379\273\221)\327<\332\021\037\275\274\337#\275\267\017\233\2746G\222\272c\315\"=\354H\241\274B*\"=G\311#=\217X\317<{_\007\275|\037<=\304\301\025\275\320\031\021=Iq\322\274\237\367\271\274Ra\025<\271E\"=\315h\025\274\225\320>\275\013\2334=-:\305<\027\267\306<\367\0141\275\032\205\235\274\313m\350\274\376\\\377\274t\267\322<3\031\305\274E\352\312\274\264\234\336\272c\375\261\274\242KK:\177t}\274\267\305F\2745\245\336\274\251\014!\275\346\244\343\274\304\250\264\274\252\213@\274R\334\001<i\340\t=\362\225\253<CX:\275\3207\001<\223\270\r\275\310\025\253<q\375\240<:ep\273\261\014\r<\245\034\036=n!3\275H7\345\273\303m\225\274M\320\367\274\244\3434=\361\035\310<\300\341\250\274O{>\275\000\251\272;\261\245S\274\213\313\331<q\036\356\274M\273\346:\014\224\275;\235&\307\274l^\221\274\304-\326\274\255F\344\274T\341\207;\215\241H<\331F0\274\223Z\261\274R]\003<\315\037\037=A\230-=\203\3223=\246\230\252<_\330\010<\261l\262\274\302&\267;%\313\317\273\271&\236<y\334\004\2757\224\352\273=\r\346\272\306\360\277<\014A\237<4(\221\274Y\341*=\334\204:=8\341;=la\005=G\204\354\274\3616\017=\027E\322\274Y\353/\275\021\271\r=\300\210\316<d\033\220\274\262\342\004\275[\024\357\274v\260\304<K}\207;.\004L\274\307K\341<\277$\013=\274w^<uK.\275\202\305<\275\304e\035=\030\375P\274\030X+<\236K\301\272u\367\n\275*F\014;[\230\253<\"\364\035=\314\004\025\274\336\223\037=\364E\325\274\242[\334;\342p\230:\327\r\253\274H\320\371<\022>\327\274\365\345\312\274\033\3413=\020\362\016=f\366\222\274!\343\r\275\003\376\255<\213\304\037\275\375\345\352\274\276B-\274\001q\205<\221\377\337\274\323\336\035=\374X\272<\246|\031\2755\370)\275E\237J\273\010]\376;\360\2606=\216k\020:X3\005=\233\232\337;>\343\265\274\260g\315\274\271\357\262<\356_\270<h\317\253\274\350s^\274\262\re;\030\315+\274\002\010\367<\234\025\237<*\r2=\236\036\226<8>\023<\230\221\003=1K:\275\340\310\333<\225\363,=\245kU\274\021\211\021=\252u\030\275+s?=m6:=L\237\023<\316\314\325\274l=\370\274s\361\037\275f`\360\274\214\233+\275kN\330\273\220\205\033=\264\347\025=\317\276\274\273\263\321^<\014A\037=E(\211;v\217F<J3\230\273\231\3208=\232\202\354<bW4\275\371\211\367<S\344A<\021\251\334<\255\251\001=\207D\006\275?\262==\203?\321<\242un<\323~\221\274\323\361o<\242LB;\363\034&\275P\312\367<2\355)=q\275P\274Yu\037\275\357\271K<2\037\323;\346\'==\236\034\224<(\002$\275\030j\001<\317@8\275\233\006r<\353\345\036\275I\262\340<\304\271\010\275K\032\320;\"\276\325\274!\300\210\274\027}1=Cg*<g\213\003\275\'\021#<%\307`<3e\326;\t\357\030=\367\001\237<6\226\325\2746\204|<\345)\363<\371{\023<\355\225 <N-\341<YO\320\274`\005\272\274JSG;\014\375\266\274q3\022=\303F\010\274\r\003\210\2716\006\236<\225\374:=\340i\000\275\016_,\2745\250\232\274\335l!=~\235\002\275\0302\212<\343\017\023\275I\200\371\274\273\213\351<tG\204;\303\251v\274\275B\003\275\2244\"\275q\362\306\274\332\202\022\275$j\336<>I\217\274{%\263<\216y2=\3014\326\274\263\331;\275\333;;=<\364\223<!y\215<l\214\225\274fq\020\274\272\220\235\274\231\0142\275\271D\003=\n\334\032\275\315\273\332<k\333\344\274\003\033b<\270\003\256;q*\315<x\314\244\274>\217\034\275\022\261|\274\003\300\356<\001H\273\274w\030\005\275\223\207\301\274\021\202\270;\357\244\355<\322\362,\275\255\031\265<\370i\277\274x\3468=\254\322\212<M\205\246\274\250-\314<\213y5=\370\3562=\331\224\357<\371\262;=\340};\275K\013)\274\234\030\n\275>y\214\273\253\006T;B\030\367;E\2634\275\026D0\275\016\"\326<\306\0323=\256\0225\275\247\251\223\274\372\032\310<\327:{\274\340\305\341\274\017\360\024\275q\277\022\275 \0273=l\205\375;\320,\'\275\237+\037\274V\322\016\275>\201,\275\2541\236\274/\331\327<\2733\031;\030\257\025=N{\367<Go\354\274z\316,=6\307\321\273JQ%\275(\354\301<|@\315\274\230C\r=\366l\013\274\330\r0\275\363u1=\201\352\316\274\373\\\364\274T3\233\274=\026$\275\023\237\313\274M\365\022\274\177t\350\274N\334&\275\316r\274<\023\257$\274As,\275[\375\255\274\302\356\264<\377\201\030=\361\373\031=tz\271<\2666\r\275\351\222&=\006\245\244\274\263\353(<5\271x\273\262\005X\274\033\"\"<k\236\275\274?\223\356\271r\"\r\275\223\031\r=a\304\030=\317fI\274\034+\347\274\013\314\031\274\213\005\343\274M(j\274\007\r3=\304I\353\274\363\304d\274\001\351\210<b\317J\274\035\271\035= \317\212<\231\r,<\266\222z;u\335\355<Nyb\273 \317E\273*D\343<\322g\022=\321if\274\037\270==\016\250{<I\265\211<\274\357?=\334Dr<\3644\200\274\213\004\356<\314\023\331\274\034\326\'=K\027\023\274\242\r\272\274wN\371\2749\261\t\275hx\301\274W\027\365<*\312X\273U\266\267;\3523\036\275\370X2\275\230\003\227<\262\217\003\275\240}\235<\306>%\274\254\177\360\274\226Q\373<)\017&=i\321\276\274\310c\316\274Y\367\217\272\226&@=\036\204\016\274\260\221\372<Z\3419\267\257\006/=;\223q\274u|#<ju\353\274W\2203\275\362\004\202<?\275p<3\314\322\273\332\006\226\274eV,\275(\267\306:%do<9\213:\275\023\210\334\274F\371\315\274\213\356\317:\334\240\365\274n\\I\274\235\321\332\274\2453\265:d\356\323<\023i-=\035o\356<qG!<\241\372\352\274\3233\035\275\016\254\334\274\331\363\243<\224\333\315<U\013\035=\211\036\364\274Z%\034=\304S;\275\376\357\333\274\007\023\n<\2628-\275\221\306\031\274\236\341\213\274y\346\253\274\272\340\344\274\246v\013=l\311\332\273\022\213\276\274\314\222\220\274\262\232\231\274@Z\034=\211C\317\273\241w*\2744E\367\274\361\217\374\274)\376\n=#\264!\274\300,L<\035\266\241\274<\353f\274\010\245\003=O\313\020\275\357\330V\274\334Q\212\274\331\006\022\274\005\017B\273+b\022\275\247\320\r\275\010I/\275\376\272\307;\210\251\235<H6\250\274\3762\234<\342Y\351\273\n=$=\376\302\007\274\2415\300;<\024\033\275,\274\322\274\205o\377\273}D)\275\004]+=z5h\274\347s\256<\002\302\n<\325wD\274F\342.\273\255M\177;G\307\357\274\205\\\004\275\317\330H\274\302X\000=\rY\366\274\243\342\017=\214>\373<4\026\230\274\217\226\324<\262\025\027<`\241\033\275\307\225K=q\325\010=F\215\320<D%\352<6\360\337<\240\2770=\202l=\275\202\353\025=5\314\360<\002;\r=\342U\t=\032\3051\275R\331\327<\231\366\342<\016\352\0368At\004\271\343\031Q\274\356\237\\<\222?\345<6\302%=\013\375\206<\356\233\017\275Q\361\204\272\305\366q<=\310\240<\261\313\252<u\272\352<l\270\006=W=\210\274Y\336\335\274(\245\025\275\036T\355;T{\231<\307\n\365<\022\245\370\274`\362,\275\343\024\357<\313t\n\275\036ll\274M\304\031\275\250k\271<3y\235\274\2419#\275\035\3662\275\250\232\347\274uZ\022\275}\306\253;\014;\360\274\354\224\341\274\332\226$=\262\233D\274\"\\\252\273\266\202\241<\362\027\014<d\360g\273\370N\252<\027q\r=\333!0=\313|\200\273\364\265\013=\326L\247<)\026,=\324t\302\274\023\n\337<\373\361Y\272\371\374\356\274\356\006\314\274=t\024\273\230\255\211<\234\315u;\244$B<\014g\253\274r\372\"=\352\035\373<\253Z3<\302\024\257:\315\023\301\274\013N\320;L.\014\275\305e:;\251Qu;e_\016=\317\304s\274_\022\247\273\0378[\274>\2456\275\211Q\032\2753)\017<X\255\017=\233\226\331\274\306J0<%\232\022\275\250\231\274\274q\336\022=\3049P\274\r[\271\274\345\317\323:\324-q\273\246\273\000\275t\347_;\216\034(=w\335\032\275Cn1\274\375\276E\2752\277\325\274Z\311\325\274\364{\016\275$\324\330\273\037KN=\265>\007\2758\245\372\274u\205:=r\205\212<\235O\360\274y.\034\275,Q;=-\314\303\274d\271Q\273U\002\320<\351Z!\275\253\325\002<\263\241\313\274q\344\033\275\010]\224\274C\265\033=\200\226!=7b$=\3423G<G\205\016=\'\242\350\274}\3049\275~@\002=\374\312\321<gOT<\216\205\246\274\334\000\257\272U\027\231<9C\257\274p@\240\274\361@$=nu\001\275\t\246\020=\037\344\274\274Q\224\016=\364\267+\274<\320\016\275\233\355\003\273{\027\365<ve\004\274\235\030\210\274BC\203<\373\375\201;v\004/=\n=O<\250\327\362;\337\232\334\274\270.\333\2749\177\246<\273i\240<^\222\362<o\351a<\022[\245<\016\255\031=\253(\033=\375\326\223<\355`\025=.0:\275\360z\374\27413\277<\230~a<6\227\376\273+5\177;iw\021<\266\255\023\275\257~\034=\234\3465=7\2412\275 \002+\275\037\224}\274j\344\030=\356*,\275cM\031=\301\245\356\273\302J\366\274z\320&<p\305\326\274x\353!\275R\353:=$\203\265\274\253b\033\275\364\3761\275\204\203(\274Z\010\306\274l\006\350:/\262\326\274\270\261^\273\2352\025\274A\345\"\274c\233\205\274\022\306\361<T\023\223<\013\025\231\274k\311(\274=6G\274\271\212\304<h\220\356\274(\220\376\274\312\026\214<\027G\354\272\n\313.\275\372\0327<iB+\274c\316U<ML\322\273y\376\251;\007\211\373\274\206\305\010\274/q\316\274\n\272\301\274\326Y\030={g\321<jn\034=@\361\246\274)\235\006\275w\2711\275!,8\275\031\333<\275\331\221.\275y5\373\274;\204\301\274`\251/<\272\327\306\274\002\005\000\275IL8=f\346\023\274Q+\010\275\334\372X\274\253\344\313\274\334y\331\274\340M6=\306\343\017:\216\326\345;\275.\010\275\346\254-=0 \245\274tv\226<\211\330D<\254\341I\273\320\026\006\275\364\216\023<\260B-=\275{\004\275`?\203<P\013\334</\327\350\274\202#_\274oB>=\214\303\334\274{9\357<C\021\262<^\265\206<\303\t\n\274lD\244;f\250\017\275T3\337\274\303\342)\275\361\367\260\274\263\350\375;v\300g;\373\037\367<r[\016=\024\261\356<\275\372\010\275\346\037 \274j\261_<z\375-=$t\211:\324e\320\272\020\300\333\274\345t\001\275N\245\312;xc<=j\343\013<\023J7=\201\000\344\273\320\221\267\274N.\253\2741:\314\273\310\364\301\274\333df:B\333\324\273\021\'\236\274\363\205\355\274\244\245\332<]\217\376\274\267\364\347<,2,=\352\243\201\274`\000\262\274\272\035\025<\037\356n<\226\370\013\275\257\266\t=U(5=,\205\001=\203\263-\273\360\221X<\014\324\177<\236\364\005=\234\246\250<\361\027@\275\257E\006=\244f\347<\362&0=\302\327\313<\231\230\020=nY\314<u\2321=\260\205\374<\327\345\002\275W+\300\274\322\304\003:X\364&\275g\302\371\274\236\'3=v\026\344<\360\320$\275\336q\274\2746\177,=I1\305<]\372\346\274\221\254(=\252\222\006\274W\277\'\275\240\314\361\273\231\244B\274\250\267)=\316\240!;c@\034\275\262_\304\273\211n\"\275\326\325\\\273\006\\\375<\030\224\333\274\203:\034<bw\261;\237a*=\314\373/<\005\001\"\275\345\355\351\274\326\004#\272x\333\025\275\033\314\226\274\346b\001=2m\021=\240s\225<\215:k<\247/\303<\373\322\340<k\026\t=\364\"9\275WX\372\274u\313\017<\304\3242=\372\001l\274\370\323\367\2720\300\364\274q\374\353\274pt7\275\254%\036\275\305V\222\273;\236\207\273b\251F\274\331\371\250\274SG\301\274\214\315\331\274\001\270\225<GM\221;Bu\373<)\337&=\340\271\372\274a\261\355<+\310\033;\305\314\336<~\206\245\274\334Q.=\t)9\275@3\006<\302L\036=)\377\322<{t\243<\207\2055\275\266\025\014\273\\\363)=\345\325\205<\211\n\241<\r\3744\275\210<\030\275@W\275;\232e\013\274.e\016=\237\361 \275\237)m\274\355(\017=\2265\017=81\021\274\243k\223\274*\306\243<P\237\307<\315\035#=o\001\370\274\205\302\267\274\330?\344\2745\020\027\275\274\3544\274\310A\001\275~\317%=\2122<\27546\211<c^:=j7\033<1\020y\274\314\231\263\274\265oj<\261\214\302\274\006\'\r\272b\325 \275g).9|\"\010\275&\315E<|\353\332<\351\312\002<4<\333;\233\255\270<f\303\013=\027O$\275\302<a<A\220\013=v\266\274\273\211\277\006\275\362[\032\275a\014\010\274\2740\315\274`)\365\274\004\304\343<as!<K\227\361<\3662\334<\276A\361\272OT\014<|\232\372<\340xr;\357\205\005=\220\343\006\275mP,\275\305\203\350\274\320N(\274h\234\367<\252;\317\274\346!3\275z%\233\274\247\244\023<\351\203\221<\233\367\366<\347\022\341<\020\037\264\273-h\022\275\222\2071=}\233\214\274v\002\023=h\327\223<!;\001\275\177\314\245<&\262\232\274\371\206\020\274\304d\"=]\014\307\267rL\274\274|\360(=\252\021\345\274\314o\356\274R\035\336<S\213\202\273d\346\222<\272\224\022=\240\017\312<\346\037\002=\367@&<\220\313\036\274\n%\033\274\016\260\327<7]\020\275x\332\'=\345\332\266<<0\223<\264y\025<\024\"\305;\331\363\256<\331U-<\233\342\201<\316\332\022=\227L\210<|\233o;9{\237;\027\227\343<\017C\r=\016G\272<\2374\236\274\227\001\301;>2!\272\227%4\275z\223\r:\343\202\035=\245\263c\274z\340\200\274C\304\260\274P\376\010<2\247\227<x\366\271;\237*)<\233\216*\275Qy\354\273(h\313<K\245\027=\013bX< \236\356\274\036\013\014\275H\276z:>\341\240\274\270\273%=\027v\033=\255\341\372\274u\220q\274fL\035\275\323\230\203\274B3\242;E\377\315\274\243\320\r=\273\220\010=\026\310\277\2740?7=1\373\376\273`@\303<\004\344D\274\335\n$\274\242\316\232\274\302\037\001\272\251s\343\274\203g%=\216\032\353\274\325\234\027\275\331\2656=\341\3129\274z\261\202\274O\244\317\274\267l\273\273\030@,\274\304v)=\320\240\360\273\217\274\025=\207\030\337\274`$\372;\341\211\025\275&4\232\274\244D\220\274\302t\254\274\361\270\014\274D\351\220\274gN\026=uMX<\315\006B\274;\206$<\363\000\022\275\022\206\350\274\025l[<u>R<\201\370\251;o\344\004<\007Q\337\272(?\000\275ol7\2731q\374<\301\304\246\274\261\334d\274Cy\032=\312\"\314<\337\274\354\274\2725O\274v\025\305\273\202\004_;\205\031\277\274s\3619=Z\300\\;!,\342<\342\212\t\275t\262\030\275\352L\026=.g\315<\343\234\321;\344\254\n=\326\263\300\274\370\264\311<\255\337\032;\357\216\277<\017\375m;\010c#=\376\363\322<\3503\264;\220f@<\235\347D\273\37159=X\020\327\274\031\210\333\274\276\334\317\274\017\355\226\274\"K \274\003\202\310\273.9\260<\370\273\002\275\312\327\257\274Z\237\310<\010\037\255:\005\366\027\275\251\023==\376M5=t\362\363<8\235\n\275\354TC<\374]\223\274\177(`:\213\2164=/\333\316\273\255u\210<B ==S\373P<\237\315\202\274q9)=\336#$=\320Bj;\331\036\213:\r\014\343<\010\306\352\273\256[\032\274\202\204\307\274\351\374\006=\364\013\r=\013\207\215<\343\270\263\273 \242&=\375\202\002<N\026(=\301e7=\026\270\325<.\245\014=\301^\003=\\\212c;\357\220\353<\0214\240\273\003+X<\331\237>=\247v\354<6\214\333\273u\226\022\275wn\025\274\006\2503=G\330~;\324\3302\275;\031&\2758\222\026\274O\021\236;6q\320\274p 2\275\014\350_<K\261\345\273:\255,=R\205\243<\0271\250<\356c\232<\343N\265\274.e\323;*b\"=CQ\310<\361\276\224\273wx\271<\212\311\032\275\367\3427=\246\371N\273\3654\236\274\350\022.\275\267\274\335;\232\362H\274\"C!\275\255\252\333<\303\345\032<\270Y\006=\362*\\\272\256&)\275\256\346\023=\001\253\365\274\375\206\335;\017\326J=\254k!=\242t\344\274W\376\341\274\333\344\326\274\036K\267<\021m\024=t\257\374:\263\034\016\275\365\270\345<\351\337]<\371=3=\375J==\236\275\025\274jV\032\275\257\336{\274[0\033<\350\006\026\275x\314\036\274\0269 \275\372\242\032\2752;d<\363\\\037=\033j\311<\237\251\200<\332\020\'<s\320\270\274v\363\031\275WK\004\275\320\240\331<\313\364\021=\324:\364<M\200!<\376\026\274;o~\230\274P\t\344\274\306\244\"\275\t\261\261;V\014\360<\313\025\334\274\370:\334<t\374\250\274J\201\217<\271\013 \275\277\014.=_\031\036\275\326\275b<\270f\026\275h\317\216:\327\374\343<\354\233\245<7^\033<\2653\343:\270\322\244\274\201\312\027\275\251\346\327<Z\242\033\274L\314\275\273sL\265<Y\224x;W\250\320\273\315\300\200\274\216\2745\274Y\226\310\274\363\214\335<\305\037\036=\240\353\354<\311\312,;l\324\203\274\307e\335;\023\320\300\274\246$\316<X\017\343\274\216\3101=\225\224==b\262\272<\324\301\305<\315\247J<\010a4\275\341g\275<\006%8;\370o\026=\365\031\313<\246\0045;\222\\\n=\320f!\275\014o\375\273\250>\000=\306d\364\274\315\350.\275\226\206\024\2743\347\223\273\324V\310\274\276\257G\274\356_\230\273\202\3641<h\373\267;>\367j<8:\035=x\261\350\274.\2211\275\337\310\033;\235[\036=\311\343\326<\331h\323<y\0015=\343\025\260\273Ft\024\273N\255\"\275?\320\270\274\377\373\263<\253\246\250<&\345#\275Cx[<\020h\210\274\243\232\317\2746\200.=\002T\211<\306_\250<=#\313\274pg\022\275\306\371\024=|,\001=\370O\301\274mG=<&\225%\275\030G1=\300\224\027\275\200;P<\261\2622\275Wn\017\275\216\017_\274\334\210><\022Y\270\274\351\345\220<b\337\006\275\202\361\032;\255\327*<?\201\353<!S\"\274W\034==\001z\204:J\320\010\275\307\000\032==\017\003\275/\355\221\274@\004\022=\027\353\037\2752\037\373<S\375l<T\315N\274\205y\030=2\315\t\275Dm\371<Y[9\272Z\232n\274\343\345\331<>\202\367\273\374A\205<\270\314\241:p\2703=\0308\326\274\231\320[<\014\227+=\220\"\033\273\004\252\220\274\003y4=\261\371\210\272gv\002;\263u8=\277\024\226\274\306;/<\372\002\370<\313k,=\257\234\204\274~\344\025\275k\260\224\274\254=!=\307@\033\275b\2110\274\356p5=\266\221\036\275\203\0359=\343\034\356\273\342\033;\273\350\007\272\274\210\266\230\274L\247/\275*\301\r=\035\246\036=^\372\345\274rm\251;Y}3\275\022+\r<\213\306\314<\261\0019\275\241\014\232<\201u\273\274\204\320\237<\234o\361<\255T==F#\363\274\027\227\017=\005R\361<v\317\236;\250Z\306<H\3401=\247\021\204\274H\316?\274c\331+\275i_\"\275\317\002\026\275-\021\261\274\031\276\037\275?\177\342\272~\010\365<\t\276\243\274\360\333\240<j\332\344;\224%#=\2607m\274\364_\020\275o\232\363\274\326.&=\351J\263<\244=[<\354\177(\275J\275\335;\210Xw\274mP\343;\034q2<\025\000\035=2g\005=\003\377\202<\244\371\307<\"`-\2758\204\010\274\244,\370\273\251z \275\241\004\313<EI\357<\341?_<\020n\204;l\211 \274\366m3=n\266\310<L\341\030\275\371\241S<\224\371i<\202#8;o\220\211<m\220-:`o\375<\374\017\343\274F\340\001\274\371\252:\274\264o\220\274\371\013\336<\300\"\n=\310)o\274\360\276L\2746A{;\332w0\273\346#&\275\347\202T<c\013\316\273/^2\275I)X\273*\360\366<\003\005\235</\020\026=E\360\361<\202\241\"\275@\027$\27448\013=\326\200\224\274\360u(\275\375,\271<]i\310\274g\0370\275\024\212\022\275y\n?=\237\034\010\275?\373\323\274x\222\345<\264\262\216\273Z\366\367\274\270\364p\273\033\367\270<\274X\005=/\211\276<\367\270\032\275\237\335b<\271\317\366\2743\004\234\274\216\3238=\366\3055=\240p\244;\240\231\273;\027o!=~\214\303<!\273\206\273-\2761\275\034\273&=<V\220;\213\0320;\017[\014\274A:\006=\353\037\306\273+S\333\274\016\266\211\274\241\256\021\275-\205\370<\361\010\240<\306\233\037\273\327y6=\344\336+\275\342\361\300;B\324\303:\303\"%\275\003\0060\275!\177\220\273\233\013|<Q\301\270<\2439#=_\025\022\275#U\200\274\3536\266<N\245c<|\030 \275\253\216\032<\355\002\010=\275!!=\252,\360\274\200S\000=1\256==\3033\215<G\010\345\273\000\343\023;\275@\025:\357H)\275Y\343\"\275f\031S<\277u\242\274\324\255\n\275S7\317; n\026\275\237-@\275\206\355\'<\017\001{\274\272O\022=\025).\275\267\341A<\374\\\331\274@\004\272\274\366\352\272\274#\366\026\275\335\006\273:}\235\211:k\260X\274_s\211\272\326^\262\274\300n\347<\302\347\016=\333\005\227;\016\312\304\274\370\273\003\275\1774$\273\344\344(=W\334\215\274(u\324<\321+\236\274\374-H<+*\220\273\320\314\240<\342p\277\274\301#\237\274s!\t\275\252xI\274\266M\362\274\313R(<\002\231\017\274\245\333\032=\0019\323\273-?\351\274\224O\350\274\311\323<=)\\\346<\273\010~\274\254\026\377\274\331\276\267\274E\'!\275G\245\343<\2116$\275\302\344\373:4=\277<w\247\035<)\217.=\273\177\325<\275\0366<<47=\324\\<=\346!\342\274\007\262\211\274*\005\022\273\251\007\301<\010\030U<\034=\340;\301.\035<\334\316\316\274B8\273\274\370\\a:\230;\371<?\314\034\275t$\273<~\327\036=\257\341p<\345N\363\274\270\332\020\275\225\247\024\274\211\027<=^\204\261\274\260\236\327<\025\005\036<<\215/\275F)\200\273A\215\032=?d\034\274\366-a\274\247\275\275\274\352\350:\2758:\027=.B\271<\332\303h\272\332I\373\273\023\261\341<:\265|\272\346%\364<R\350I\274\342\0228\274\341\273<\275\312\215,\274\373|\355\274\243\261\216;\270\006\371\274\350<\324\274,\023\240\274&\354\300\273%\0248\275\352\311\256\274\245F\203;\024\363\t=\210\002M;\203\220\031=\312\016\'=\340\024\340\272\242\217\244<\3400\'=\013\025(\2743\353\224<H\036\353\274\311\273\306\274\326\201\305<2\203\013<\025\214\332<\033\'4\275D\376\3779D\324\225:\374\301\031\274<\310{<\324\t\032\275\306\240\355\274!\033\027\275\\\210\023;\375\320,